<pad>	0
<unk>	0
<s>	0
</s>	0
▁그	-0
▁이	-1
▁아	-2
▁하	-3
▁-	-4
▁있	-5
..	-6
▁사	-7
▁내	-8
▁거	-9
▁말	-10
▁가	-11
니다	-12
▁나	-13
▁어	-14
어요	-15
▁자	-16
▁너	-17
▁안	-18
▁우	-19
▁수	-20
▁것	-21
▁보	-22
▁다	-23
▁없	-24
▁알	-25
▁그들	-26
▁하나	-27
...	-28
▁지	-29
▁여	-30
▁아니	-31
▁t	-32
▁당	-33
▁모	-34
으로	-35
▁일	-36
에게	-37
▁저	-38
▁해	-39
에서	-40
▁전	-41
▁우리	-42
▁하나님	-43
▁제	-44
▁않	-45
▁대	-46
▁주	-47
▁오	-48
▁당신	-49
하는	-50
in	-51
he	-52
▁마	-53
▁기	-54
▁a	-55
▁좋	-56
▁한	-57
▁내가	-58
▁시	-59
들이	-60
▁정	-61
▁무	-62
▁사람	-63
라고	-64
▁생	-65
▁너희	-66
습니다	-67
on	-68
▁같	-69
▁네	-70
▁위	-71
지만	-72
▁난	-73
▁들	-74
re	-75
하고	-76
▁그래	-77
▁때	-78
▁만	-79
아요	-80
ou	-81
▁뭐	-82
▁부	-83
다고	-84
이야	-85
▁바	-86
▁못	-87
에요	-88
▁고	-89
▁할	-90
는데	-91
▁했	-92
▁되	-93
▁s	-94
리고	-95
이라	-96
▁도	-97
니까	-98
▁잘	-99
▁죽	-100
하지	-101
▁그러	-102
▁여기	-103
▁인	-104
▁생각	-105
▁거야	-106
▁누	-107
er	-108
▁더	-109
▁선	-110
세요	-111
▁실	-112
▁w	-113
▁미	-114
▁불	-115
▁계	-116
▁있어	-117
▁좀	-118
▁있는	-119
at	-120
▁the	-121
me	-122
▁조	-123
▁진	-124
is	-125
▁그렇	-126
▁♪	-127
▁두	-128
▁중	-129
들을	-130
▁1	-131
▁n	-132
▁건	-133
잖아	-134
▁c	-135
it	-136
▁소	-137
▁그리고	-138
▁왜	-139
▁게	-140
거야	-141
▁남	-142
▁걸	-143
▁I	-144
▁날	-145
▁f	-146
▁신	-147
an	-148
or	-149
▁상	-150
▁의	-151
▁믿	-152
▁살	-153
▁b	-154
▁비	-155
▁스	-156
▁방	-157
들은	-158
예요	-159
다면	-160
▁모든	-161
노라	-162
한테	-163
▁있었	-164
ing	-165
▁경	-166
▁돌	-167
▁지금	-168
▁d	-169
▁'	-170
해요	-171
▁예	-172
입니다	-173
▁괜	-174
le	-175
▁세	-176
▁엄	-177
▁구	-178
▁괜찮	-179
▁필	-180
▁물	-181
▁어떻	-182
▁싶	-183
▁받	-184
▁찾	-185
하여	-186
▁데	-187
▁그런	-188
합니다	-189
▁정말	-190
▁얘	-191
▁y	-192
▁그분	-193
▁유	-194
▁들어	-195
▁어떻게	-196
▁동	-197
▁서	-198
▁무슨	-199
▁원	-200
▁파	-201
▁하지만	-202
네요	-203
하게	-204
▁좋아	-205
ll	-206
▁집	-207
▁분	-208
▁돼	-209
▁문	-210
▁o	-211
▁감	-212
▁그들은	-213
다는	-214
▁하나님은	-215
▁그것	-216
▁그냥	-217
▁m	-218
▁필요	-219
▁아무	-220
▁you	-221
▁공	-222
▁맞	-223
리라	-224
ar	-225
▁그들이	-226
▁영	-227
▁그럼	-228
▁다른	-229
▁하는	-230
▁결	-231
▁있어요	-232
en	-233
해서	-234
▁관	-235
▁in	-236
더라	-237
▁T	-238
▁to	-239
▁이제	-240
▁많	-241
▁"	-242
▁또	-243
▁우리가	-244
▁그녀	-245
▁것이	-246
으면	-247
▁제가	-248
▁봐	-249
까지	-250
▁행	-251
▁p	-252
es	-253
▁알았	-254
▁잠	-255
▁성	-256
ion	-257
▁th	-258
▁2	-259
▁없어	-260
▁(	-261
▁친	-262
▁애	-263
▁엄마	-264
▁알아	-265
▁넌	-266
▁줄	-267
이지	-268
▁있을	-269
▁함	-270
▁얼	-271
▁연	-272
▁재	-273
▁모르	-274
ed	-275
부터	-276
이에요	-277
▁장	-278
▁어디	-279
▁그대	-280
▁것을	-281
▁실로	-282
▁피	-283
▁따	-284
▁말하	-285
거든	-286
▁네가	-287
▁배	-288
▁다시	-289
▁돌아	-290
▁얘기	-291
▁h	-292
▁당신이	-293
▁차	-294
께서	-295
▁적	-296
▁l	-297
▁심	-298
▁S	-299
▁g	-300
었어	-301
▁로	-302
▁발	-303
▁그게	-304
▁은	-305
▁누구	-306
으니	-307
▁시간	-308
ct	-309
▁에	-310
as	-311
▁될	-312
▁하고	-313
▁여자	-314
▁새	-315
▁약	-316
▁죄	-317
▁그렇게	-318
▁우린	-319
▁노	-320
처럼	-321
nd	-322
▁먹	-323
▁모두	-324
잖아요	-325
려고	-326
▁손	-327
군요	-328
겠어	-329
▁주님	-330
▁몰	-331
▁좋은	-332
▁사랑	-333
▁달	-334
▁확	-335
▁오늘	-336
▁드	-337
▁백	-338
ot	-339
▁반	-340
▁아이	-341
▁같은	-342
▁친구	-343
▁왔	-344
▁올	-345
▁끝	-346
▁와	-347
▁음	-348
▁벌	-349
▁나는	-350
▁A	-351
에는	-352
▁너무	-353
니라	-354
▁3	-355
▁이런	-356
▁C	-357
▁명	-358
▁베	-359
▁요	-360
하시	-361
▁어떤	-362
us	-363
▁후	-364
▁당신은	-365
▁최	-366
▁됐	-367
▁라	-368
et	-369
▁위해	-370
하면	-371
▁버	-372
▁열	-373
▁알고	-374
▁of	-375
▁너희가	-376
▁그래서	-377
나요	-378
▁그건	-379
도록	-380
▁때문	-381
▁언	-382
▁천	-383
▁절	-384
ow	-385
▁하지	-386
▁아빠	-387
ay	-388
bs	-389
▁일이	-390
▁충	-391
▁아직	-392
▁니	-393
▁개	-394
▁거예요	-395
▁단	-396
al	-397
▁메	-398
▁환	-399
▁준	-400
▁입	-401
▁목	-402
▁매	-403
▁이건	-404
▁치	-405
▁타	-406
는지	-407
▁프	-408
▁작	-409
했어	-410
▁뭔	-411
▁근	-412
▁그가	-413
▁말씀	-414
▁외	-415
▁갈	-416
▁길	-417
느뇨	-418
들에게	-419
▁크	-420
▁그는	-421
▁잡	-422
▁않았	-423
▁설	-424
▁그들의	-425
bsp	-426
▁nbsp	-427
▁번	-428
▁순	-429
▁자네	-430
▁is	-431
▁나도	-432
▁미안	-433
해야	-434
▁이름	-435
▁남자	-436
▁말이	-437
▁W	-438
ve	-439
버지	-440
▁만들	-441
▁그의	-442
▁4	-443
▁그러나	-444
▁형	-445
하기	-446
겠지	-447
▁닥	-448
▁같이	-449
ame	-450
▁처	-451
구요	-452
▁겁	-453
▁하나님의	-454
이나	-455
▁기다	-456
▁떠	-457
었어요	-458
▁뭘	-459
▁리	-460
▁우리는	-461
▁화	-462
▁곳	-463
가요	-464
▁계시	-465
▁P	-466
▁그들을	-467
▁시작	-468
▁문제	-469
nt	-470
▁M	-471
▁안녕	-472
겠어요	-473
▁종	-474
▁수술	-475
▁과	-476
기를	-477
▁카	-478
▁몇	-479
▁함께	-480
▁둘	-481
▁완	-482
▁하나님이	-483
리는	-484
하라	-485
▁놈	-486
▁그들에게	-487
이다	-488
리를	-489
▁강	-490
▁백성	-491
om	-492
▁추	-493
나니	-494
▁이것	-495
▁be	-496
▁머	-497
▁있습니다	-498
▁간	-499
▁k	-500
▁re	-501
▁사람이	-502
▁아니야	-503
▁응	-504
▁뿐	-505
리가	-506
▁얼마	-507
▁진짜	-508
▁가지	-509
▁아냐	-510
▁양	-511
▁없어요	-512
▁현	-513
▁온	-514
▁복	-515
▁D	-516
▁말해	-517
▁창	-518
▁빨	-519
▁참	-520
▁속	-521
▁안돼	-522
▁아버지	-523
게요	-524
▁항	-525
대로	-526
지도	-527
▁포	-528
▁봤	-529
un	-530
▁을	-531
ic	-532
▁그만	-533
렇게	-534
▁H	-535
▁계속	-536
보다	-537
자가	-538
구나	-539
▁누가	-540
▁준비	-541
▁바로	-542
▁O	-543
▁거기	-544
▁이상	-545
▁괜찮아	-546
▁싫	-547
▁it	-548
▁and	-549
▁눈	-550
▁하여	-551
▁힘	-552
▁on	-553
▁있으	-554
레이	-555
▁가져	-556
까요	-557
▁아주	-558
▁이게	-559
▁전화	-560
▁잠깐	-561
▁사용	-562
▁e	-563
들의	-564
▁닥터	-565
리스	-566
▁널	-567
▁변	-568
()	-569
▁된	-570
▁통	-571
▁테	-572
▁교	-573
▁보내	-574
▁보여	-575
▁보고	-576
했어요	-577
하였	-578
▁뒤	-579
▁세상	-580
▁가장	-581
▁사실	-582
▁불신	-583
ut	-584
▁전에	-585
▁저희	-586
▁이렇게	-587
▁돈	-588
▁병	-589
▁않아	-590
▁말이야	-591
▁어서	-592
▁밤	-593
▁앞	-594
▁마음	-595
▁찾아	-596
▁도와	-597
▁않을	-598
▁여기서	-599
▁그를	-600
▁호	-601
▁해야	-602
▁N	-603
적인	-604
▁쓰	-605
▁해요	-606
▁자기	-607
ur	-608
▁기억	-609
▁증	-610
▁없는	-611
이었	-612
▁질	-613
▁몰라	-614
▁다음	-615
00	-616
ad	-617
▁있지	-618
▁고마	-619
이라고	-620
ig	-621
▁용	-622
▁허	-623
▁대해	-624
ction	-625
지는	-626
▁것이라	-627
▁Y	-628
▁회	-629
id	-630
이죠	-631
▁B	-632
라는	-633
▁me	-634
▁씨	-635
▁싸	-636
▁일어	-637
▁이거	-638
▁얼마나	-639
▁볼	-640
▁선택	-641
▁같아	-642
들과	-643
▁he	-644
▁제발	-645
▁운	-646
▁나가	-647
▁야	-648
▁느	-649
하며	-650
▁5	-651
▁저기	-652
▁감사	-653
▁근데	-654
ld	-655
▁귀	-656
▁있다	-657
▁빨리	-658
▁본	-659
▁그럴	-660
▁고마워	-661
인데	-662
▁직	-663
st	-664
▁그랬	-665
▁인간	-666
▁st	-667
▁총	-668
▁혼	-669
▁큰	-670
▁산	-671
▁대한	-672
▁이해	-673
▁가족	-674
▁사람들이	-675
▁너희는	-676
▁위한	-677
▁숨	-678
▁선생	-679
▁않는	-680
▁금	-681
▁편	-682
▁많은	-683
거든요	-684
▁못하	-685
▁갖	-686
▁환자	-687
▁수도	-688
한다	-689
▁L	-690
으며	-691
▁라고	-692
▁아니라	-693
▁만약	-694
겠죠	-695
▁그리	-696
▁놀	-697
이요	-698
▁출	-699
▁겁니다	-700
od	-701
▁빠	-702
시오	-703
▁자신	-704
▁당신을	-705
▁보이	-706
HP	-707
하세요	-708
▁존	-709
ac	-710
▁그걸	-711
▁선지	-712
▁The	-713
▁별	-714
▁태	-715
▁알았어	-716
▁망	-717
▁이야	-718
▁믿는	-719
▁짓	-720
▁약속	-721
▁평	-722
거나	-723
▁막	-724
▁that	-725
▁는	-726
▁데려	-727
▁F	-728
▁아닌	-729
▁일을	-730
지를	-731
▁코	-732
▁좋아요	-733
ver	-734
걱정	-735
머니	-736
음을	-737
▁따라	-738
▁만나	-739
▁하였	-740
▁루	-741
▁걱정	-742
▁아마	-743
▁은혜	-744
▁언제	-745
▁임	-746
▁박	-747
▁이미	-748
▁하나님께서	-749
▁여러	-750
hat	-751
▁때문에	-752
▁잘못	-753
se	-754
▁아뇨	-755
if	-756
어야	-757
▁하시	-758
이고	-759
▁거짓	-760
▁너희에게	-761
▁두려	-762
로운	-763
▁것도	-764
것도	-765
거에요	-766
▁초	-767
▁트	-768
▁글	-769
▁사이	-770
▁아니에요	-771
ly	-772
▁권	-773
▁for	-774
▁저는	-775
▁누군	-776
▁파일	-777
▁결혼	-778
▁do	-779
▁살아	-780
▁희	-781
▁키	-782
▁검	-783
▁집에	-784
▁선생님	-785
out	-786
▁[	-787
▁this	-788
적으로	-789
스트	-790
ke	-791
▁선지자	-792
▁떨	-793
운데	-794
▁많이	-795
▁클	-796
▁완전	-797
▁내려	-798
▁레	-799
▁we	-800
▁G	-801
▁그렇지	-802
▁항상	-803
면서	-804
▁r	-805
▁갔	-806
▁K	-807
ment	-808
했다	-809
▁토	-810
▁뭔가	-811
▁아니면	-812
▁방법	-813
▁책	-814
▁거지	-815
▁뜻	-816
▁말을	-817
▁소리	-818
▁나한테	-819
▁했어	-820
식을	-821
▁듣	-822
▁당신의	-823
▁악	-824
▁깨	-825
▁들어가	-826
▁fun	-827
았어	-828
▁브	-829
▁있고	-830
▁밖	-831
▁표	-832
다가	-833
▁이유	-834
스로	-835
▁그분은	-836
▁없었	-837
▁어때	-838
겠습니다	-839
am	-840
▁폭	-841
▁그거	-842
겠다	-843
▁보호	-844
▁R	-845
라도	-846
▁싶어	-847
로되	-848
▁U	-849
▁것은	-850
▁원하는	-851
▁식	-852
▁일러	-853
▁넘	-854
▁서로	-855
▁없습니다	-856
▁function	-857
▁멋	-858
▁너희를	-859
▁돌아가	-860
데요	-861
▁가서	-862
▁왕	-863
▁not	-864
▁전부	-865
ith	-866
▁거죠	-867
▁중요	-868
▁곧	-869
▁그래요	-870
▁아무도	-871
ht	-872
장님	-873
▁분명	-874
인이	-875
▁또한	-876
il	-877
▁돼요	-878
▁죄송	-879
▁알지	-880
▁하나님을	-881
ol	-882
▁점	-883
▁이봐	-884
▁줘	-885
▁아무것도	-886
▁경찰	-887
▁잃	-888
▁You	-889
▁무엇	-890
▁아침	-891
ab	-892
중에	-893
전에	-894
▁딸	-895
▁학	-896
▁먼	-897
▁나를	-898
▁앉	-899
이트	-900
▁가자	-901
▁떨어	-902
▁헤	-903
▁an	-904
▁처음	-905
기는	-906
으로부터	-907
▁받아	-908
ter	-909
▁나의	-910
했던	-911
▁하늘	-912
래요	-913
▁케	-914
▁E	-915
▁그것을	-916
상을	-917
하셨	-918
▁슬	-919
기가	-920
▁축	-921
▁어느	-922
▁얻	-923
▁아내	-924
▁체	-925
▁명령	-926
▁그분의	-927
▁이걸	-928
ri	-929
▁한번	-930
▁불신자	-931
▁생각해	-932
가지	-933
ch	-934
▁있다고	-935
▁동안	-936
▁역	-937
▁특	-938
▁커	-939
십시오	-940
하려	-941
습니까	-942
▁가운데	-943
▁그러니까	-944
ir	-945
리아	-946
자를	-947
▁빌	-948
▁충만	-949
인지	-950
▁인도	-951
▁뭐야	-952
▁군	-953
▁맞아	-954
▁내게	-955
▁싫어	-956
스러	-957
▁의사	-958
▁스스로	-959
스가	-960
▁확인	-961
다니	-962
있는	-963
▁그런데	-964
▁위해서	-965
ee	-966
▁그것은	-967
▁with	-968
▁도움	-969
▁걔	-970
니까요	-971
ill	-972
▁가지고	-973
▁팔	-974
▁프로	-975
소서	-976
▁우리의	-977
▁6	-978
▁물론	-979
▁괜찮아요	-980
ome	-981
▁몸	-982
▁침	-983
▁주시	-984
▁알려	-985
▁했어요	-986
op	-987
▁법	-988
▁암	-989
▁창조	-990
▁/	-991
▁뭐라고	-992
▁절대	-993
her	-994
▁말라	-995
▁꺼	-996
▁거역	-997
주세요	-998
이는	-999
▁하나님께	-1000
▁그녀는	-1001
▁취	-1002
▁놓	-1003
▁되는	-1004
▁10	-1005
▁말하길	-1006
▁당장	-1007
는데요	-1008
하니	-1009
▁안전	-1010
ity	-1011
고요	-1012
▁안에	-1013
거지	-1014
▁국	-1015
▁뭐가	-1016
▁쉬	-1017
▁알아요	-1018
▁이르	-1019
▁여러분	-1020
▁그때	-1021
im	-1022
사를	-1023
ge	-1024
하죠	-1025
▁지켜	-1026
▁혼자	-1027
▁승	-1028
같은	-1029
▁두려워	-1030
▁사람들	-1031
▁물어	-1032
에도	-1033
▁고맙	-1034
가로되	-1035
▁같아요	-1036
▁를	-1037
▁거에요	-1038
▁이리	-1039
▁잊	-1040
▁똑	-1041
ight	-1042
ave	-1043
▁움	-1044
▁상황	-1045
▁채	-1046
▁발견	-1047
▁조금	-1048
▁멀	-1049
리지	-1050
th	-1051
이시	-1052
▁떠나	-1053
▁마지	-1054
▁위험	-1055
▁일러가로되	-1056
▁그래도	-1057
▁크리스	-1058
all	-1059
▁이는	-1060
▁하면	-1061
▁멈	-1062
▁가능	-1063
▁진실	-1064
▁그녀가	-1065
▁이야기	-1066
▁읽	-1067
▁정도	-1068
있어	-1069
스를	-1070
▁기다려	-1071
였어	-1072
▁얼굴	-1073
▁확실	-1074
▁PHP	-1075
▁마지막	-1076
야지	-1077
동안	-1078
▁나와	-1079
▁말은	-1080
▁your	-1081
도다	-1082
▁니가	-1083
▁그곳	-1084
▁말고	-1085
겠지만	-1086
▁그날	-1087
▁us	-1088
ce	-1089
Name	-1090
▁투	-1091
했습니다	-1092
▁술	-1093
▁접	-1094
▁범	-1095
▁my	-1096
▁움직	-1097
자는	-1098
서요	-1099
▁말야	-1100
▁신경	-1101
▁어쩌	-1102
▁맹	-1103
▁계획	-1104
▁삶	-1105
▁오래	-1106
▁진정	-1107
▁사람은	-1108
▁하셨	-1109
▁않아요	-1110
르는	-1111
ust	-1112
▁일어나	-1113
▁이번	-1114
▁가는	-1115
▁정신	-1116
하나	-1117
▁말했	-1118
인가	-1119
▁거짓말	-1120
다고요	-1121
▁말하는	-1122
▁자들이	-1123
▁Th	-1124
▁있죠	-1125
▁세상에	-1126
▁con	-1127
▁누군가	-1128
▁삼	-1129
up	-1130
라이	-1131
▁너도	-1132
▁벗	-1133
and	-1134
심이라	-1135
이랑	-1136
▁기분	-1137
▁남편	-1138
▁부인	-1139
▁엄청	-1140
▁합니다	-1141
▁내일	-1142
pe	-1143
▁맛	-1144
시간	-1145
▁붙	-1146
▁왜냐	-1147
▁꼭	-1148
oc	-1149
▁웃	-1150
▁정보	-1151
▁없을	-1152
겠네	-1153
▁사람을	-1154
▁판	-1155
▁독	-1156
▁페	-1157
▁것이며	-1158
▁첫	-1159
었다	-1160
▁ne	-1161
▁사라	-1162
라면	-1163
▁v	-1164
▁결정	-1165
▁여긴	-1166
▁맡	-1167
▁먼저	-1168
▁잠시	-1169
▁꿈	-1170
지가	-1171
로부터	-1172
▁잠깐만	-1173
▁아시	-1174
▁최고	-1175
▁그에게	-1176
▁질문	-1177
▁can	-1178
▁성서	-1179
▁빼	-1180
ent	-1181
▁등	-1182
봐요	-1183
▁머리	-1184
들도	-1185
▁시간이	-1186
▁병원	-1187
았어요	-1188
▁설정	-1189
▁가까	-1190
리니	-1191
보고	-1192
▁조심	-1193
▁불러	-1194
▁디	-1195
었지	-1196
▁나오	-1197
▁사진	-1198
▁님	-1199
이가	-1200
▁고통	-1201
▁아는	-1202
▁혹	-1203
▁저도	-1204
▁어머니	-1205
▁풀	-1206
▁있는데	-1207
qu	-1208
사가	-1209
기로	-1210
▁이러	-1211
▁넣	-1212
▁가야	-1213
▁있다면	-1214
▁다들	-1215
시키	-1216
▁지금은	-1217
▁잡아	-1218
City	-1219
▁각	-1220
▁됐어	-1221
어서	-1222
▁위에	-1223
자고	-1224
▁일은	-1225
▁사건	-1226
줘요	-1227
이라도	-1228
ie	-1229
▁젠	-1230
▁당연	-1231
ant	-1232
▁미안해	-1233
▁부탁	-1234
▁엄마가	-1235
으니까	-1236
ation	-1237
▁수가	-1238
하신	-1239
지고	-1240
▁대체	-1241
▁높	-1242
▁늦	-1243
▁터	-1244
▁설명	-1245
하다	-1246
▁대답	-1247
단다	-1248
▁충분	-1249
▁있노라	-1250
▁감사합니다	-1251
▁담	-1252
▁상관	-1253
▁go	-1254
ore	-1255
▁심장	-1256
▁캐	-1257
▁He	-1258
▁as	-1259
▁기회	-1260
▁이젠	-1261
ate	-1262
▁경고	-1263
ist	-1264
▁죽은	-1265
▁엘	-1266
▁패	-1267
▁자비	-1268
▁가진	-1269
▁이것은	-1270
가는	-1271
▁7	-1272
▁인생	-1273
▁are	-1274
기도	-1275
했을	-1276
▁꾸	-1277
▁J	-1278
▁갖고	-1279
▁기록	-1280
▁싶은	-1281
▁중요한	-1282
한다면	-1283
ul	-1284
거죠	-1285
▁훌	-1286
▁맹세	-1287
▁있었어	-1288
▁않은	-1289
▁사람들은	-1290
▁즐	-1291
▁갑	-1292
▁8	-1293
쪽으로	-1294
▁뛰	-1295
ain	-1296
되는	-1297
▁있잖아	-1298
▁우릴	-1299
▁j	-1300
▁상태	-1301
▁그러니	-1302
▁땅	-1303
▁여성	-1304
▁잔	-1305
님이	-1306
▁사악	-1307
되었	-1308
▁부모	-1309
▁있으면	-1310
▁봐요	-1311
▁지난	-1312
▁농	-1313
▁방금	-1314
▁믿음을	-1315
됩니다	-1316
어나	-1317
▁벌을	-1318
▁하여금	-1319
um	-1320
▁옷	-1321
명을	-1322
▁아름	-1323
▁새로운	-1324
▁연락	-1325
ould	-1326
▁멍	-1327
▁앉아	-1328
▁괴	-1329
▁하니	-1330
▁놔	-1331
되지	-1332
으리라	-1333
대한	-1334
▁We	-1335
적이	-1336
▁하루	-1337
▁al	-1338
▁모세	-1339
되어	-1340
스는	-1341
▁젠장	-1342
▁나쁜	-1343
▁것과	-1344
▁예증	-1345
▁그대에게	-1346
▁kn	-1347
주는	-1348
▁용서	-1349
▁was	-1350
▁울	-1351
▁멸	-1352
▁맥	-1353
▁알았어요	-1354
▁믿지	-1355
urn	-1356
▁도망	-1357
▁name	-1358
자들이	-1359
▁거라고	-1360
▁미국	-1361
▁비밀	-1362
어버	-1363
▁9	-1364
▁치료	-1365
▁ch	-1366
▁문제가	-1367
▁ex	-1368
▁알게	-1369
▁훌륭	-1370
▁하더라	-1371
▁써	-1372
▁지옥	-1373
▁밀	-1374
였어요	-1375
▁짐	-1376
▁몰랐	-1377
gm	-1378
▁플	-1379
▁have	-1380
▁칼	-1381
▁kgm	-1382
▁묻	-1383
▁말할	-1384
▁없다	-1385
▁청	-1386
pt	-1387
▁li	-1388
ry	-1389
녀석	-1390
▁행복	-1391
our	-1392
▁자네가	-1393
▁데이	-1394
▁만들어	-1395
▁너는	-1396
▁말도	-1397
▁지나	-1398
▁나타	-1399
▁This	-1400
ro	-1401
▁...	-1402
▁들었	-1403
식이	-1404
▁가르	-1405
시다	-1406
▁at	-1407
▁같은데	-1408
▁블	-1409
▁그러면	-1410
▁de	-1411
▁고마워요	-1412
▁or	-1413
▁20	-1414
▁만일	-1415
▁따르	-1416
▁It	-1417
▁있나	-1418
▁합	-1419
▁힘들	-1420
▁것으로	-1421
리에	-1422
▁아들	-1423
▁꼬	-1424
▁혈	-1425
하지만	-1426
▁어딨	-1427
기에	-1428
▁길을	-1429
▁거의	-1430
이를	-1431
▁방황	-1432
▁아가	-1433
이크	-1434
▁지혜	-1435
거라	-1436
▁던	-1437
▁팀	-1438
▁Oh	-1439
▁전혀	-1440
겠네요	-1441
어도	-1442
거늘	-1443
▁일부	-1444
이란	-1445
▁sh	-1446
▁보상	-1447
수를	-1448
▁경우	-1449
으나	-1450
▁저녁	-1451
렸어	-1452
▁말씀을	-1453
했지	-1454
▁by	-1455
▁wh	-1456
▁두고	-1457
▁그것이	-1458
시는	-1459
▁죽을	-1460
▁골	-1461
하리라	-1462
▁대해서	-1463
텐데	-1464
▁무서	-1465
▁여기에	-1466
▁없이	-1467
▁공격	-1468
▁노력	-1469
▁쓸	-1470
▁필요한	-1471
▁해결	-1472
▁찍	-1473
▁끝났	-1474
oo	-1475
▁광	-1476
▁너의	-1477
▁워	-1478
▁아래	-1479
▁있다는	-1480
▁안녕하세요	-1481
▁있게	-1482
려는	-1483
▁적이	-1484
▁살인	-1485
▁죽었	-1486
ap	-1487
ile	-1488
▁에이	-1489
드는	-1490
치는	-1491
▁믿음	-1492
나는	-1493
▁올라	-1494
스러운	-1495
▁능	-1496
▁사람들을	-1497
▁틀	-1498
ss	-1499
▁하라	-1500
▁know	-1501
▁부르	-1502
▁형제	-1503
자로	-1504
▁행하는	-1505
▁전쟁	-1506
▁면	-1507
▁ar	-1508
▁때까지	-1509
▁아직도	-1510
▁주님의	-1511
▁작은	-1512
▁심판	-1513
▁그녀를	-1514
▁것에	-1515
▁관용	-1516
▁녀석	-1517
▁멍청	-1518
▁섹	-1519
▁보냈	-1520
▁은혜를	-1521
스터	-1522
▁그레이	-1523
▁밝	-1524
▁숙	-1525
▁향	-1526
▁멸망	-1527
▁le	-1528
▁직접	-1529
▁아빠가	-1530
▁=	-1531
▁단지	-1532
▁휴	-1533
▁한다	-1534
▁착	-1535
▁내세	-1536
▁@	-1537
하사	-1538
으시	-1539
하도록	-1540
▁해도	-1541
▁자들을	-1542
므로	-1543
▁우리에게	-1544
일이	-1545
▁궁	-1546
마다	-1547
▁싶지	-1548
▁그리하여	-1549
▁낮	-1550
사님	-1551
▁대신	-1552
▁에게	-1553
시켜	-1554
▁중에	-1555
▁연결	-1556
주지	-1557
▁그녀의	-1558
▁솔	-1559
▁쳐	-1560
겁니다	-1561
▁끌	-1562
물을	-1563
▁노래	-1564
▁해서	-1565
▁all	-1566
▁있었어요	-1567
▁선을	-1568
▁받았	-1569
들에	-1570
▁나님	-1571
ack	-1572
셨어요	-1573
▁숭	-1574
▁일이야	-1575
▁바보	-1576
▁폐	-1577
▁것처럼	-1578
수가	-1579
력을	-1580
▁결과	-1581
워요	-1582
▁비행	-1583
장을	-1584
▁순간	-1585
ase	-1586
어가	-1587
▁알렉	-1588
▁우리를	-1589
PHP	-1590
▁이곳	-1591
▁며	-1592
려면	-1593
ument	-1594
▁아닙	-1595
사람	-1596
▁자는	-1597
▁끝내	-1598
▁ab	-1599
▁존재	-1600
▁도움이	-1601
▁살해	-1602
▁뉴	-1603
▁옳	-1604
대요	-1605
▁러	-1606
▁행동	-1607
▁것입니다	-1608
▁딱	-1609
▁대화	-1610
▁밖에	-1611
▁don	-1612
▁빛	-1613
est	-1614
▁이때	-1615
하려고	-1616
▁찬	-1617
이며	-1618
에서는	-1619
▁학교	-1620
▁맙	-1621
▁게임	-1622
▁받을	-1623
▁필요해	-1624
▁훔	-1625
▁혹시	-1626
▁죽여	-1627
▁말하지	-1628
▁너회	-1629
주고	-1630
▁천국	-1631
▁하나님과	-1632
▁늘	-1633
소사	-1634
하심이라	-1635
▁쪽	-1636
했죠	-1637
▁천사	-1638
▁허락	-1639
라고요	-1640
▁그림	-1641
end	-1642
한다고	-1643
ect	-1644
▁협	-1645
▁바라	-1646
하는데	-1647
▁그저	-1648
었죠	-1649
봐야	-1650
구만	-1651
▁들이	-1652
▁섬	-1653
▁탈	-1654
▁?	-1655
버려	-1656
▁나중에	-1657
인을	-1658
▁맘	-1659
▁미친	-1660
하네	-1661
▁년	-1662
▁나랑	-1663
▁있는지	-1664
▁보라	-1665
▁조용	-1666
▁별로	-1667
▁no	-1668
▁압	-1669
▁맙소사	-1670
▁어디서	-1671
▁있나요	-1672
▁도시	-1673
▁미안해요	-1674
▁엉	-1675
▁했는데	-1676
▁죄악	-1677
▁찾을	-1678
ure	-1679
▁되지	-1680
▁will	-1681
▁돌려	-1682
art	-1683
▁폴	-1684
▁파티	-1685
able	-1686
▁what	-1687
ia	-1688
▁것이다	-1689
▁맞아요	-1690
▁아니요	-1691
▁너희의	-1692
▁굴	-1693
▁주여	-1694
▁옆	-1695
▁이후	-1696
▁생각이	-1697
▁글쎄	-1698
스럽	-1699
선을	-1700
▁재밌	-1701
하다고	-1702
▁아름다	-1703
▁보지	-1704
▁왔어	-1705
▁대지	-1706
▁분이	-1707
겠다고	-1708
드리	-1709
▁숭배	-1710
함을	-1711
▁말씀이	-1712
든지	-1713
▁No	-1714
▁베풀	-1715
번째	-1716
▁하죠	-1717
▁마세요	-1718
▁자들은	-1719
▁꽤	-1720
ake	-1721
▁진리	-1722
했는데	-1723
이스	-1724
▁있나니	-1725
▁되었	-1726
이면	-1727
▁완전히	-1728
▁제대로	-1729
▁여보	-1730
▁저를	-1731
▁현재	-1732
이라는	-1733
▁아닙니다	-1734
age	-1735
▁관심	-1736
▁시간을	-1737
▁베일	-1738
스크	-1739
ers	-1740
ind	-1741
▁도착	-1742
▁되어	-1743
장이	-1744
함이	-1745
▁않고	-1746
▁했지	-1747
▁뇌	-1748
▁염	-1749
▁여행	-1750
▁의심	-1751
▁외에는	-1752
▁바람	-1753
▁위치	-1754
▁자가	-1755
▁fr	-1756
▁싸우	-1757
▁없노라	-1758
▁됐어요	-1759
▁쫓	-1760
ess	-1761
▁몰라요	-1762
▁동생	-1763
▁끊	-1764
▁왜냐면	-1765
▁긴	-1766
만이	-1767
▁아프	-1768
▁get	-1769
▁권능	-1770
▁돈을	-1771
▁레이	-1772
▁주세요	-1773
더니	-1774
명이	-1775
▁영원	-1776
▁이름이	-1777
▁거요	-1778
▁책임	-1779
▁12	-1780
▁짓을	-1781
ak	-1782
▁마시	-1783
▁들을	-1784
▁내리	-1785
▁퍼	-1786
▁멋진	-1787
▁나무	-1788
▁일에	-1789
▁서둘	-1790
▁색	-1791
▁제일	-1792
▁않습니다	-1793
▁정확	-1794
▁너를	-1795
만한	-1796
소리	-1797
▁장난	-1798
▁욕	-1799
했고	-1800
▁쟤	-1801
ort	-1802
▁생겼	-1803
▁시험	-1804
▁처리	-1805
▁!	-1806
정을	-1807
▁이라	-1808
▁사무	-1809
ah	-1810
▁앨	-1811
▁유일	-1812
▁가요	-1813
▁봤어	-1814
▁되리라	-1815
들아	-1816
▁just	-1817
전히	-1818
▁현세	-1819
▁영화	-1820
▁보는	-1821
▁의미	-1822
▁And	-1823
▁사는	-1824
▁낭	-1825
▁활	-1826
로는	-1827
ink	-1828
▁se	-1829
디오	-1830
이네	-1831
ime	-1832
▁물건	-1833
av	-1834
시아	-1835
▁up	-1836
러디	-1837
▁듣고	-1838
▁세계	-1839
▁about	-1840
그램	-1841
더군요	-1842
▁봉	-1843
▁이동	-1844
▁후에	-1845
▁못할	-1846
▁어떠	-1847
▁가고	-1848
▁영광	-1849
들로	-1850
▁모르는	-1851
▁규	-1852
▁결국	-1853
▁대단	-1854
▁되고	-1855
▁if	-1856
▁쉽	-1857
▁돌아오	-1858
.0	-1859
▁상처	-1860
▁너한테	-1861
▁마치	-1862
었는데	-1863
드릴	-1864
졌어	-1865
ast	-1866
▁누구도	-1867
▁이름을	-1868
꺼야	-1869
지지	-1870
레스	-1871
자의	-1872
인가요	-1873
▁기도	-1874
하시니라	-1875
SA	-1876
▁so	-1877
▁흥	-1878
▁out	-1879
▁그대는	-1880
던데	-1881
▁보기	-1882
▁지내	-1883
▁What	-1884
▁com	-1885
▁끔	-1886
▁아니지	-1887
들어	-1888
스템	-1889
ine	-1890
▁보면	-1891
▁이전	-1892
▁whe	-1893
물이	-1894
원을	-1895
ive	-1896
▁스타	-1897
▁모르겠어	-1898
실에	-1899
lo	-1900
▁아마도	-1901
▁매우	-1902
셔야	-1903
▁죽일	-1904
▁찾았	-1905
▁그러므로	-1906
▁모습	-1907
▁어쨌	-1908
▁와서	-1909
해주	-1910
▁부정	-1911
으세요	-1912
수는	-1913
ire	-1914
▁루시	-1915
▁멀리	-1916
▁빠져	-1917
▁.	-1918
▁뒤에	-1919
거예요	-1920
▁둘이	-1921
▁대로	-1922
▁죽음	-1923
▁없지	-1924
이라면	-1925
▁ret	-1926
▁이름은	-1927
▁제외	-1928
one	-1929
▁아니한	-1930
위를	-1931
줄게	-1932
▁논	-1933
▁흔	-1934
▁아파	-1935
▁정말로	-1936
▁like	-1937
냐고	-1938
하러	-1939
▁자손	-1940
▁했던	-1941
▁서둘러	-1942
▁인터	-1943
▁데리고	-1944
▁영혼	-1945
▁웨	-1946
시죠	-1947
▁메러디	-1948
▁줬	-1949
대를	-1950
▁이전에	-1951
▁그분께서	-1952
해도	-1953
▁끔찍	-1954
▁벌써	-1955
▁사고	-1956
▁%	-1957
▁척	-1958
▁그와	-1959
하십시오	-1960
▁답	-1961
(),	-1962
▁농담	-1963
▁죄송해요	-1964
▁죄송합니다	-1965
▁월	-1966
▁완벽	-1967
▁재미	-1968
지마	-1969
속에	-1970
ook	-1971
▁뿐이라	-1972
▁V	-1973
성이	-1974
ell	-1975
▁벌이	-1976
▁없고	-1977
▁재앙	-1978
▁하게	-1979
없이	-1980
▁보자	-1981
▁좋을	-1982
력이	-1983
▁가끔	-1984
▁앞으로	-1985
▁달라	-1986
▁괜찮은	-1987
▁나에게	-1988
▁특별	-1989
▁모두가	-1990
▁안되	-1991
거라고	-1992
em	-1993
▁말한	-1994
▁죽이	-1995
저씨	-1996
▁있어서	-1997
드가	-1998
▁오늘은	-1999
▁되면	-2000
▁않았어	-2001
▁그대가	-2002
▁생각하는	-2003
▁빈	-2004
나이다	-2005
왔어	-2006
친구	-2007
▁업	-2008
▁오른	-2009
▁당신에게	-2010
자기	-2011
▁자유	-2012
▁아버지가	-2013
▁않으면	-2014
가를	-2015
이니	-2016
ail	-2017
▁조지	-2018
▁있었던	-2019
▁말이에요	-2020
▁있던	-2021
▁뛰어	-2022
▁여자가	-2023
▁짜	-2024
냄새	-2025
▁매일	-2026
▁새끼	-2027
▁30	-2028
▁부분	-2029
겠군	-2030
ord	-2031
▁만났	-2032
▁some	-2033
▁방해	-2034
▁그대의	-2035
▁말이죠	-2036
thing	-2037
▁났	-2038
▁흐	-2039
없는	-2040
▁해보	-2041
사는	-2042
▁믿어	-2043
▁순종	-2044
▁제거	-2045
다구요	-2046
▁any	-2047
▁왔어요	-2048
el	-2049
드려	-2050
만을	-2051
트를	-2052
▁관계	-2053
▁그대를	-2054
▁뭐하는	-2055
치고	-2056
ag	-2057
▁밑	-2058
디어	-2059
▁옛	-2060
드를	-2061
▁말이지	-2062
▁까	-2063
하더라	-2064
▁want	-2065
▁철	-2066
위에	-2067
▁실례	-2068
▁자식	-2069
들이여	-2070
▁익	-2071
한데	-2072
란다	-2073
▁때는	-2074
원이	-2075
▁밥	-2076
상이	-2077
▁성공	-2078
▁우주	-2079
▁사악한	-2080
▁싶어요	-2081
▁자들에게	-2082
▁받은	-2083
▁그렇죠	-2084
없어	-2085
통령	-2086
▁작업	-2087
▁하는데	-2088
그래	-2089
▁시스템	-2090
▁만든	-2091
▁잠시만	-2092
▁가까이	-2093
▁남아	-2094
▁쿠	-2095
▁아니고	-2096
ard	-2097
▁어려	-2098
▁윌	-2099
▁그분이	-2100
▁아저씨	-2101
onn	-2102
▁언니	-2103
하시는	-2104
▁저희가	-2105
▁먹고	-2106
ex	-2107
▁말하고	-2108
▁쇼	-2109
나가	-2110
에선	-2111
▁자를	-2112
▁훌륭한	-2113
▁return	-2114
▁그대로	-2115
▁안에서	-2116
▁알았지	-2117
▁북	-2118
하실	-2119
▁불과	-2120
인은	-2121
▁괜찮을	-2122
▁어디로	-2123
▁있느뇨	-2124
▁크리스티	-2125
▁잭	-2126
어진	-2127
▁다행	-2128
▁주소서	-2129
▁견	-2130
과의	-2131
밖에	-2132
▁어제	-2133
▁저주	-2134
▁있어야	-2135
▁좋아하는	-2136
▁프로그램	-2137
▁정의	-2138
▁닫	-2139
▁티	-2140
에겐	-2141
▁축하	-2142
ally	-2143
so	-2144
ue	-2145
줘야	-2146
하자	-2147
▁검사	-2148
▁뿐이야	-2149
▁하리라	-2150
만큼	-2151
▁알겠어	-2152
▁15	-2153
▁비유	-2154
▁너가	-2155
▁어린	-2156
▁여전히	-2157
▁손을	-2158
이었어	-2159
▁but	-2160
▁했을	-2161
렸어요	-2162
▁표시	-2163
▁홀	-2164
▁또는	-2165
▁음악	-2166
▁풍	-2167
르게	-2168
▁사랑해	-2169
먹을	-2170
성을	-2171
▁거기서	-2172
시지	-2173
▁가게	-2174
▁열어	-2175
▁확실히	-2176
ip	-2177
▁못하는	-2178
▁베푸	-2179
▁대통령	-2180
할게	-2181
▁마찬	-2182
▁불가	-2183
▁안돼요	-2184
▁해주	-2185
▁inf	-2186
명의	-2187
▁충만하심이라	-2188
▁없다고	-2189
▁빌어	-2190
▁실패	-2191
▁추가	-2192
▁어때요	-2193
▁있으며	-2194
▁냄새	-2195
▁뭔지	-2196
▁아이를	-2197
▁친구가	-2198
셔서	-2199
요일	-2200
▁지키	-2201
▁헌	-2202
▁헬	-2203
아니	-2204
▁경배	-2205
리의	-2206
보는	-2207
--	-2208
▁19	-2209
▁끼	-2210
▁훨	-2211
이잖아	-2212
▁0	-2213
더군	-2214
▁먹을	-2215
▁기다리	-2216
▁끝나	-2217
▁아기	-2218
▁있잖아요	-2219
▁효	-2220
▁진심	-2221
▁들려	-2222
▁예배	-2223
▁들어오	-2224
▁저희는	-2225
▁교훈	-2226
▁유일한	-2227
겠습니까	-2228
기고	-2229
버리	-2230
▁배우	-2231
▁신이	-2232
▁당연히	-2233
▁주님께서	-2234
겠소	-2235
▁정부	-2236
▁알렉스	-2237
▁from	-2238
▁이들은	-2239
ber	-2240
▁했죠	-2241
▁낫	-2242
▁자비로	-2243
치가	-2244
▁감옥	-2245
▁사탄	-2246
▁솔직	-2247
양이	-2248
ult	-2249
▁이용	-2250
▁그러지	-2251
▁당신도	-2252
▁찾고	-2253
▁엄마는	-2254
▁샘	-2255
▁지도	-2256
▁one	-2257
▁깊	-2258
▁캠	-2259
▁신앙	-2260
▁앤	-2261
▁콜	-2262
같이	-2263
었고	-2264
▁물러	-2265
▁보상을	-2266
▁민	-2267
▁슈	-2268
대가	-2269
대체	-2270
서는	-2271
▁목숨	-2272
▁피해	-2273
▁바꾸	-2274
▁자신을	-2275
▁옮	-2276
▁증거	-2277
▁이것이	-2278
▁탐	-2279
▁포기	-2280
▁생각을	-2281
▁셋	-2282
▁믿을	-2283
▁어쩌면	-2284
시고	-2285
▁다니	-2286
▁훨씬	-2287
▁건가요	-2288
▁앞에서	-2289
):	-2290
▁으	-2291
▁궁금	-2292
▁죄인	-2293
▁당신과	-2294
▁사이에	-2295
▁only	-2296
▁마찬가지	-2297
▁거라	-2298
ck	-2299
ous	-2300
▁이를	-2301
▁인내	-2302
▁뜨	-2303
하면서	-2304
받은	-2305
▁오는	-2306
▁보세요	-2307
▁지원	-2308
▁If	-2309
▁구원	-2310
▁놀라	-2311
▁수는	-2312
▁오빠	-2313
▁str	-2314
▁관련	-2315
부분	-2316
었을	-2317
ice	-2318
▁흘	-2319
보지	-2320
브라	-2321
서를	-2322
▁관리	-2323
▁데릭	-2324
▁최고의	-2325
▁죽어	-2326
▁계시니라	-2327
▁연구	-2328
지옥	-2329
kay	-2330
▁파라	-2331
▁갑자기	-2332
▁한다고	-2333
▁할머니	-2334
▁실행	-2335
▁앞에	-2336
▁가만	-2337
▁드릴	-2338
▁인턴	-2339
▁장소	-2340
▁죽는	-2341
▁도대체	-2342
AL	-2343
수도	-2344
치지	-2345
▁남자가	-2346
▁하늘과	-2347
omment	-2348
ock	-2349
ong	-2350
거리	-2351
안에	-2352
▁가슴	-2353
▁망할	-2354
었던	-2355
▁겨	-2356
▁동료	-2357
▁개인	-2358
▁거래	-2359
▁자신의	-2360
됐어	-2361
▁lo	-2362
▁얘기를	-2363
▁헛	-2364
▁기대	-2365
rent	-2366
▁모르겠어요	-2367
▁졸	-2368
술을	-2369
했다고	-2370
▁보이지	-2371
▁이유가	-2372
▁예언	-2373
듯이	-2374
▁애들	-2375
▁집으로	-2376
▁왼	-2377
▁스티	-2378
▁어쨌든	-2379
장에	-2380
에게는	-2381
신이	-2382
▁번째	-2383
▁없었어	-2384
▁접근	-2385
하니라	-2386
하라고	-2387
▁눈을	-2388
▁못해	-2389
왔어요	-2390
▁got	-2391
▁아들이	-2392
문에	-2393
졌어요	-2394
아가	-2395
ray	-2396
▁저장	-2397
▁수술을	-2398
▁일단	-2399
▁전체	-2400
▁기다리고	-2401
▁멈춰	-2402
▁원래	-2403
되고	-2404
이어	-2405
▁관한	-2406
▁모른	-2407
▁유혹	-2408
▁춤	-2409
▁실수	-2410
▁돕	-2411
▁이쪽	-2412
▁자들	-2413
▁재산	-2414
▁축복	-2415
very	-2416
▁집에서	-2417
▁주님께	-2418
▁삭	-2419
▁들은	-2420
▁right	-2421
호사	-2422
▁곳에	-2423
▁기뻐	-2424
▁목록	-2425
▁타고	-2426
▁무엇이	-2427
▁USA	-2428
▁젊	-2429
실로	-2430
ang	-2431
▁미래	-2432
▁아가씨	-2433
▁가면	-2434
▁녹	-2435
▁택	-2436
시에	-2437
▁아닐	-2438
▁su	-2439
▁외에	-2440
식으로	-2441
Comment	-2442
▁요구	-2443
▁호출	-2444
▁필요해요	-2445
▁벽	-2446
▁탄	-2447
▁tr	-2448
▁결코	-2449
▁did	-2450
().	-2451
▁노라	-2452
▁느낌	-2453
▁크게	-2454
▁말아요	-2455
▁함이라	-2456
▁놈이	-2457
▁마을	-2458
▁뭐라	-2459
▁엘리	-2460
▁메러디스	-2461
▁계산	-2462
▁데려가	-2463
▁베일리	-2464
주의	-2465
▁너랑	-2466
하던	-2467
하노라	-2468
▁한다면	-2469
▁죽였	-2470
▁관용과	-2471
▁마음을	-2472
▁#	-2473
▁pl	-2474
이상	-2475
▁알잖아	-2476
▁급	-2477
▁금방	-2478
▁운전	-2479
act	-2480
▁중국	-2481
▁doc	-2482
▁이상한	-2483
▁황	-2484
르고	-2485
지에	-2486
▁마약	-2487
▁죽인	-2488
실에서	-2489
이시라	-2490
▁200	-2491
▁않았어요	-2492
▁못한	-2493
▁바다	-2494
▁시체	-2495
▁희생	-2496
있다	-2497
▁건데	-2498
▁느껴	-2499
▁평생	-2500
▁위하여	-2501
치를	-2502
▁스트	-2503
▁하자	-2504
▁심판의	-2505
오는	-2506
ple	-2507
▁멈추	-2508
▁밤에	-2509
▁부활	-2510
▁임무	-2511
▁힘을	-2512
을때	-2513
하길	-2514
▁가득	-2515
▁라이	-2516
었노라	-2517
▁느끼	-2518
▁need	-2519
FF	-2520
님은	-2521
▁자넨	-2522
▁also	-2523
▁here	-2524
장에서	-2525
▁방법이	-2526
문을	-2527
정이	-2528
▁집을	-2529
▁커피	-2530
▁과장님	-2531
▁우리도	-2532
▁떨어져	-2533
▁언제나	-2534
지어	-2535
▁있네	-2536
ass	-2537
▁범죄	-2538
▁지역	-2539
ace	-2540
▁만큼	-2541
▁살려	-2542
▁흉	-2543
도를	-2544
▁알겠어요	-2545
▁there	-2546
ne	-2547
▁히	-2548
줘서	-2549
ject	-2550
▁qu	-2551
▁봤어요	-2552
▁document	-2553
▁보다	-2554
▁누구야	-2555
아버지	-2556
pl	-2557
▁프랭	-2558
▁그분께	-2559
▁선조	-2560
▁약간	-2561
▁초대	-2562
▁제이	-2563
▁환영	-2564
▁아니죠	-2565
▁있으리라	-2566
▁바이	-2567
gh	-2568
▁맨	-2569
겠나	-2570
보내	-2571
▁거다	-2572
▁먹어	-2573
▁버크	-2574
▁지구	-2575
겠느뇨	-2576
▁wor	-2577
os	-2578
pen	-2579
▁똑똑	-2580
▁챙	-2581
있어요	-2582
▁것들이	-2583
▁pr	-2584
스의	-2585
▁있지만	-2586
▁4)	-2587
▁반가	-2588
▁지상	-2589
ff	-2590
▁카메	-2591
▁마음이	-2592
▁아름다운	-2593
▁때가	-2594
▁뻔	-2595
기지	-2596
일을	-2597
트가	-2598
▁요원	-2599
▁주는	-2600
own	-2601
▁데이트	-2602
▁말이뇨	-2603
이었어요	-2604
거운	-2605
▁얘기해	-2606
▁그치	-2607
▁미쳤	-2608
▁문자	-2609
▁거기에	-2610
▁생명을	-2611
▁they	-2612
▁en	-2613
▁하기	-2614
▁방법을	-2615
▁말하더라	-2616
▁훈	-2617
▁찾는	-2618
▁불가능	-2619
▁했잖아	-2620
로써	-2621
▁그놈	-2622
▁무리	-2623
▁조사	-2624
▁해봐	-2625
▁기분이	-2626
▁기본	-2627
▁실험	-2628
▁보이는	-2629
▁이봐요	-2630
ather	-2631
▁부족	-2632
▁됩니다	-2633
bject	-2634
의를	-2635
▁집중	-2636
▁her	-2637
립니다	-2638
▁없잖아	-2639
▁cont	-2640
▁왜냐하면	-2641
▁굉	-2642
▁떠났	-2643
▁삭제	-2644
▁스스로를	-2645
▁샤	-2646
▁주지	-2647
▁분명히	-2648
▁조용히	-2649
▁상상	-2650
▁회사	-2651
자들을	-2652
▁진리를	-2653
.0.	-2654
▁맘에	-2655
▁인정	-2656
▁어디에	-2657
스에	-2658
ont	-2659
▁굉장	-2660
▁나라	-2661
▁받고	-2662
▁선물	-2663
▁그만해	-2664
▁분명한	-2665
달러	-2666
▁실제	-2667
▁최근	-2668
▁생각하	-2669
▁땐	-2670
▁벤	-2671
▁see	-2672
▁좌	-2673
▁St	-2674
▁꺼내	-2675
▁보낸	-2676
▁보안	-2677
▁때문이라	-2678
▁살고	-2679
▁아님	-2680
▁전해	-2681
▁게다가	-2682
ER	-2683
▁사과	-2684
▁심각	-2685
▁사랑하는	-2686
시면	-2687
▁set	-2688
▁그래야	-2689
▁확신	-2690
▁아침에	-2691
▁엔	-2692
나게	-2693
▁감시	-2694
▁삶을	-2695
▁res	-2696
더뇨	-2697
랜드	-2698
▁time	-2699
대에	-2700
▁대학	-2701
▁덕	-2702
으셨	-2703
itt	-2704
▁마이크	-2705
use	-2706
ound	-2707
▁See	-2708
▁That	-2709
▁달러	-2710
▁했다	-2711
할거야	-2712
▁불지옥	-2713
▁아까	-2714
▁없죠	-2715
▁주고	-2716
▁이럴	-2717
▁종교	-2718
▁부터	-2719
▁하였노라	-2720
퍼드	-2721
▁요청	-2722
▁해줄	-2723
▁요즘	-2724
▁him	-2725
▁더이상	-2726
▁진행	-2727
▁속에	-2728
▁여기가	-2729
▁주님은	-2730
▁하려고	-2731
▁징	-2732
아야	-2733
았다	-2734
▁애가	-2735
▁하려	-2736
▁조심해	-2737
▁빌어먹을	-2738
▁깜	-2739
시켰	-2740
▁납	-2741
▁덮	-2742
어지	-2743
▁사업	-2744
▁있으니	-2745
."	-2746
▁*	-2747
▁쏘	-2748
ans	-2749
▁건가	-2750
▁발생	-2751
▁텐데	-2752
▁대하여	-2753
▁들어와	-2754
▁극	-2755
▁낙	-2756
해보	-2757
▁없으며	-2758
ven	-2759
▁다가	-2760
인들이	-2761
▁않느뇨	-2762
▁하세요	-2763
▁늙	-2764
▁떼	-2765
냈어	-2766
▁br	-2767
▁자동	-2768
▁희망	-2769
:%	-2770
이프	-2771
▁분은	-2772
당한	-2773
▁포함	-2774
십니까	-2775
▁정확히	-2776
▁썼	-2777
가락	-2778
움을	-2779
자도	-2780
▁악마	-2781
▁도와줄	-2782
ca	-2783
였죠	-2784
ies	-2785
▁걸어	-2786
▁체포	-2787
겠군요	-2788
▁spe	-2789
▁벗어나	-2790
었습니다	-2791
▁있었는데	-2792
까진	-2793
용할	-2794
▁근처	-2795
▁행운	-2796
에서도	-2797
입니까	-2798
▁든	-2799
끄러	-2800
▁들고	-2801
▁마법	-2802
▁비켜	-2803
▁사실을	-2804
께요	-2805
터를	-2806
eah	-2807
▁버려	-2808
▁새로	-2809
▁시도	-2810
▁파괴	-2811
▁평화	-2812
▁100	-2813
내는	-2814
▁못했	-2815
으려고	-2816
▁같네요	-2817
▁아브라	-2818
▁소유	-2819
▁들었어	-2820
▁11	-2821
▁드리	-2822
하잖아	-2823
▁file	-2824
▁높은	-2825
▁여길	-2826
▁she	-2827
▁대부분	-2828
▁밖으로	-2829
▁아니하고	-2830
▁X	-2831
▁멋지	-2832
▁걷	-2833
개월	-2834
▁봐야	-2835
▁추적	-2836
▁카레	-2837
간에	-2838
한텐	-2839
▁응벌	-2840
▁좋지	-2841
▁Q	-2842
건데	-2843
▁남은	-2844
▁변경	-2845
▁도울	-2846
▁박사	-2847
▁양식을	-2848
▁그곳에서	-2849
▁이야기를	-2850
▁복음	-2851
▁유감	-2852
▁날이	-2853
▁뜻이	-2854
▁하며	-2855
▁관하여	-2856
▁있도록	-2857
▁너와	-2858
▁어쩔	-2859
▁신호	-2860
▁너에게	-2861
▁필요가	-2862
▁셰	-2863
▁꾸란	-2864
▁뭐지	-2865
▁파일을	-2866
▁back	-2867
▁퇴	-2868
▁많아	-2869
reat	-2870
▁int	-2871
▁모두를	-2872
▁영원히	-2873
▁임신	-2874
▁할아버지	-2875
거요	-2876
▁신부	-2877
ich	-2878
▁동의	-2879
▁may	-2880
▁누군지	-2881
▁이지	-2882
▁귀의	-2883
▁뭔데	-2884
▁무엇을	-2885
▁겪	-2886
▁똥	-2887
계를	-2888
으매	-2889
▁Wh	-2890
▁믿고	-2891
▁폭발	-2892
▁즉	-2893
다구	-2894
되면	-2895
였지	-2896
ick	-2897
▁과거	-2898
▁u	-2899
심을	-2900
▁씨발	-2901
▁전문	-2902
▁풀어	-2903
▁val	-2904
▁think	-2905
▁뭐죠	-2906
▁환자가	-2907
ption	-2908
▁어떡	-2909
▁없다는	-2910
▁크리스티나	-2911
기만	-2912
약을	-2913
▁내용	-2914
▁힘든	-2915
이네요	-2916
▁적어도	-2917
▁고맙습니다	-2918
▁구해	-2919
onna	-2920
▁쉐	-2921
▁나왔	-2922
▁문을	-2923
▁브라	-2924
▁육	-2925
▁회개	-2926
하시고	-2927
는게	-2928
▁소식	-2929
▁par	-2930
▁지혜로	-2931
▁진정해	-2932
▁없었어요	-2933
▁sw	-2934
▁간단	-2935
▁나서	-2936
▁릴	-2937
▁가방	-2938
▁만나서	-2939
이오	-2940
▁보게	-2941
▁자랑	-2942
▁편집	-2943
▁인사	-2944
▁저지	-2945
잖니	-2946
sion	-2947
▁col	-2948
▁아이가	-2949
▁when	-2950
십니다	-2951
▁:	-2952
▁컴	-2953
개의	-2954
▁올려	-2955
▁생각은	-2956
▁카메라	-2957
걸요	-2958
▁총을	-2959
함이라	-2960
▁cur	-2961
▁파라오	-2962
▁그렇다면	-2963
▁승리	-2964
▁알겠습니다	-2965
자들	-2966
▁받지	-2967
▁언젠	-2968
▁오셨	-2969
▁다음에	-2970
시니	-2971
▁이사	-2972
▁주인	-2973
▁가족을	-2974
비스	-2975
ide	-2976
▁어머	-2977
▁충분히	-2978
▁하느뇨	-2979
▁..	-2980
▁주변	-2981
으러	-2982
orm	-2983
▁가능한	-2984
▁쥐	-2985
지요	-2986
▁내버려	-2987
이에	-2988
▁어이	-2989
▁호텔	-2990
▁격	-2991
▁50	-2992
▁길로	-2993
▁마술	-2994
▁처럼	-2995
▁무시	-2996
▁화장	-2997
이예요	-2998
▁가질	-2999
▁대기	-3000
겠는데	-3001
▁놈들이	-3002
▁솔직히	-3003
▁닥쳐	-3004
▁역시	-3005
▁죄지	-3006
▁것들을	-3007
▁아니했	-3008
을까	-3009
▁물을	-3010
▁으로	-3011
▁입력	-3012
버릴	-3013
▁im	-3014
▁삼촌	-3015
▁오말	-3016
▁Hey	-3017
▁도와주	-3018
▁아무런	-3019
▁하지마	-3020
ost	-3021
▁유용	-3022
ode	-3023
▁아녜	-3024
▁없음	-3025
way	-3026
▁So	-3027
▁가졌	-3028
▁But	-3029
▁러시아	-3030
▁생각엔	-3031
▁알아서	-3032
▁기회를	-3033
▁마음에	-3034
▁아니라고	-3035
▁잠깐만요	-3036
▁팬	-3037
▁넘어	-3038
▁잘됐	-3039
▁man	-3040
▁여자를	-3041
▁정보를	-3042
▁Okay	-3043
▁텍	-3044
▁키스	-3045
▁인간은	-3046
ME	-3047
두고	-3048
있을	-3049
res	-3050
하네요	-3051
한다는	-3052
▁가르쳐	-3053
▁나갈	-3054
에게도	-3055
하나니	-3056
cc	-3057
ra	-3058
감을	-3059
인의	-3060
▁나아	-3061
▁옆에	-3062
▁아녜요	-3063
▁죽었어	-3064
▁그렇지만	-3065
▁주님으로부터	-3066
▁석	-3067
▁털	-3068
▁마이	-3069
할게요	-3070
▁위대한	-3071
▁,	-3072
▁닉	-3073
쟁이	-3074
▁열쇠	-3075
▁애들이	-3076
▁아니잖아	-3077
자에	-3078
▁된다	-3079
▁일도	-3080
▁타이	-3081
▁약속을	-3082
▁헤이	-3083
▁그분을	-3084
▁얘들아	-3085
▁억	-3086
▁아버	-3087
▁아심	-3088
▁이혼	-3089
▁쳐다	-3090
답니다	-3091
▁저한테	-3092
▁맞지	-3093
▁오고	-3094
▁치프	-3095
▁하실	-3096
보세요	-3097
ib	-3098
▁값	-3099
니스	-3100
▁모를	-3101
▁입고	-3102
▁곳에서	-3103
▁말라고	-3104
▁gonna	-3105
리카	-3106
▁나온	-3107
▁옥	-3108
어를	-3109
err	-3110
▁곳이	-3111
▁달려	-3112
▁뒤로	-3113
▁받는	-3114
▁어젯	-3115
▁제안	-3116
▁규칙	-3117
▁어울	-3118
▁나타나	-3119
로서	-3120
시피	-3121
▁노아	-3122
▁출혈	-3123
▁통해	-3124
▁너희들	-3125
스타	-3126
정도	-3127
▁나머	-3128
▁행한	-3129
달라고	-3130
▁권능과	-3131
▁될까요	-3132
au	-3133
것을	-3134
▁거고	-3135
하였노라	-3136
▁info	-3137
▁걔가	-3138
▁이래	-3139
▁찬미	-3140
▁피곤	-3141
▁주님이	-3142
ition	-3143
▁낳	-3144
제를	-3145
천히	-3146
▁거절	-3147
▁다르	-3148
▁맞는	-3149
▁떠날	-3150
▁차를	-3151
▁될거야	-3152
▁없나니	-3153
▁여기는	-3154
봤어	-3155
che	-3156
▁되돌	-3157
▁반대	-3158
▁보통	-3159
▁실망	-3160
▁작동	-3161
▁종류	-3162
▁사용할	-3163
▁그것으로	-3164
▁옵	-3165
▁남겨	-3166
▁오지	-3167
▁알아야	-3168
▁자기가	-3169
▁뉴욕	-3170
▁마크	-3171
▁사망	-3172
▁옳은	-3173
▁프랑	-3174
▁의로운	-3175
▁천천히	-3176
▁칠	-3177
버렸	-3178
▁자세	-3179
했잖아	-3180
▁아들을	-3181
시킬	-3182
▁미리	-3183
▁섹스	-3184
▁푸	-3185
새끼	-3186
▁의해	-3187
▁제게	-3188
▁돌아올	-3189
▁재앙이	-3190
▁주님을	-3191
▁묶	-3192
놓고	-3193
ifi	-3194
▁뭐든	-3195
▁오류	-3196
▁만드는	-3197
▁자리	-3198
▁생각해요	-3199
마스	-3200
자와	-3201
▁마요	-3202
▁일반	-3203
ther	-3204
▁멸망케	-3205
▁아니하며	-3206
▁걸로	-3207
▁준비가	-3208
됐어요	-3209
▁would	-3210
▁마지막으로	-3211
▁찰	-3212
▁꼬마	-3213
▁레지	-3214
▁움직여	-3215
▁잘했어	-3216
▁쓴	-3217
리요	-3218
▁주소	-3219
▁가져오	-3220
▁끔찍한	-3221
▁돌아갈	-3222
▁생각하지	-3223
보라	-3224
하매	-3225
▁하던	-3226
▁못하고	-3227
▁얼굴을	-3228
▁만난	-3229
▁쓰레	-3230
▁예전	-3231
▁올리	-3232
▁좋았	-3233
▁지정	-3234
▁멍청한	-3235
▁어딨어	-3236
▁했지만	-3237
lease	-3238
대는	-3239
치게	-3240
▁가라	-3241
▁금지	-3242
▁기술	-3243
▁얘야	-3244
▁옛날	-3245
▁음모	-3246
▁저의	-3247
때문에	-3248
▁가져와	-3249
▁스티븐	-3250
임을	-3251
▁끌어	-3252
▁번호	-3253
▁비슷	-3254
▁음식	-3255
▁가로되	-3256
▁1.	-3257
▁있소	-3258
▁가져가	-3259
지면	-3260
▁일으	-3261
▁차례	-3262
▁할지	-3263
다니까	-3264
▁무서워	-3265
▁있었지	-3266
▁벗어	-3267
▁하나도	-3268
▁나갔	-3269
▁유지	-3270
랍니다	-3271
▁dat	-3272
▁그것도	-3273
▁아빠는	-3274
▁엄청난	-3275
▁하시니라	-3276
▁곁	-3277
비가	-3278
으라	-3279
▁who	-3280
▁그들로	-3281
도가	-3282
심이	-3283
▁머리를	-3284
▁하나님께서는	-3285
▁캘	-3286
비아	-3287
▁조직	-3288
iz	-3289
▁쏴	-3290
스코	-3291
지의	-3292
▁명령을	-3293
▁바꿔	-3294
자들은	-3295
▁너희와	-3296
▁입니다	-3297
▁잤	-3298
하진	-3299
▁달리	-3300
▁독일	-3301
▁생일	-3302
▁이스	-3303
▁그곳에	-3304
▁아니다	-3305
▁list	-3306
▁current	-3307
쪽에	-3308
▁저런	-3309
▁어젯밤	-3310
▁특별한	-3311
▁확인해	-3312
▁엿	-3313
▁작전	-3314
▁클레	-3315
▁좋겠어	-3316
▁다섯	-3317
ream	-3318
▁상황이	-3319
▁성서를	-3320
▁알겠지	-3321
▁있었다	-3322
▁전화를	-3323
▁spec	-3324
▁자들이라	-3325
▁cl	-3326
▁보러	-3327
▁이에	-3328
▁제공	-3329
▁쫓아	-3330
더라고	-3331
▁뼈	-3332
▁성서의	-3333
▁)	-3334
겠니	-3335
are	-3336
▁안정	-3337
▁now	-3338
으니까요	-3339
▁잠시만요	-3340
▁였	-3341
라가	-3342
cri	-3343
▁깨끗	-3344
▁어둠	-3345
▁영웅	-3346
▁참고	-3347
▁출발	-3348
었다고	-3349
을거야	-3350
▁자에게	-3351
▁뽑	-3352
ere	-3353
▁주셨	-3354
▁증명	-3355
▁저기요	-3356
▁죄지은	-3357
▁사람들에게	-3358
부를	-3359
▁어딘	-3360
▁전투	-3361
▁젊은	-3362
하니까	-3363
▁부모님	-3364
▁없는데	-3365
▁좋았어	-3366
▁테니까	-3367
IN	-3368
▁소개	-3369
▁돌아와	-3370
▁곡	-3371
▁꼴	-3372
신을	-3373
alk	-3374
▁위선	-3375
▁자라	-3376
하거나	-3377
▁아버지는	-3378
wn	-3379
▁숲	-3380
년이	-3381
우스	-3382
▁들리	-3383
▁특히	-3384
▁say	-3385
▁계시된	-3386
▁도와줘	-3387
▁보여주	-3388
트는	-3389
▁보았	-3390
▁곳으로	-3391
▁하나의	-3392
▁them	-3393
▁하였으니	-3394
▁읽어	-3395
▁정상	-3396
▁할까	-3397
▁하는지	-3398
▁흑	-3399
관이	-3400
▁과학	-3401
▁능력	-3402
▁암호	-3403
▁자네는	-3404
ud	-3405
분이	-3406
▁나야	-3407
▁오랜	-3408
▁들어봐	-3409
▁알았는데	-3410
▁고통스러운	-3411
이군	-3412
▁계신	-3413
▁죄를	-3414
▁트럭	-3415
▁할게	-3416
▁계세요	-3417
▁잘못된	-3418
명한	-3419
▁있었죠	-3420
▁않을거야	-3421
▁예쁘	-3422
▁주신	-3423
ange	-3424
▁이번엔	-3425
하였으니	-3426
DE	-3427
ext	-3428
▁폭탄	-3429
▁폴더	-3430
▁효과	-3431
▁그랬어	-3432
▁여자애	-3433
▁이해가	-3434
▁일어난	-3435
되었습니다	-3436
oll	-3437
▁무기	-3438
▁밝혀	-3439
▁오만	-3440
▁조롱	-3441
▁Can	-3442
▁박사님	-3443
▁백성을	-3444
▁훈련	-3445
▁documented	-3446
금을	-3447
내가	-3448
아서	-3449
▁글로	-3450
▁생명	-3451
▁서류	-3452
▁설치	-3453
▁증언	-3454
▁하느	-3455
▁비디오	-3456
▁일어났	-3457
거고	-3458
키는	-3459
▁거주	-3460
▁use	-3461
▁생각했	-3462
▁이들이	-3463
▁벨	-3464
도요	-3465
트에	-3466
▁감정	-3467
▁갖다	-3468
▁불쌍	-3469
▁후회	-3470
었잖아	-3471
▁안에는	-3472
▁일용할	-3473
▁아브라함	-3474
▁드러	-3475
▁에서	-3476
▁태어	-3477
들한테	-3478
ings	-3479
▁들어갈	-3480
▁십	-3481
되게	-3482
실을	-3483
▁부여	-3484
▁의견	-3485
▁하사	-3486
이니까	-3487
▁그러고	-3488
이로	-3489
▁엉덩	-3490
▁최소	-3491
▁흥미	-3492
▁문제는	-3493
BI	-3494
니가	-3495
지니	-3496
▁꺼져	-3497
▁나니	-3498
▁메세	-3499
▁바뀌	-3500
▁연습	-3501
▁컴퓨	-3502
▁look	-3503
▁모르겠지만	-3504
▁감염	-3505
▁복잡	-3506
▁클라	-3507
▁그들과	-3508
▁말해봐	-3509
▁세상을	-3510
▁같습니다	-3511
▁꽉	-3512
▁홍	-3513
은요	-3514
▁죽게	-3515
인데요	-3516
ary	-3517
▁논쟁	-3518
▁동물	-3519
▁못하리라	-3520
▁백성들이여	-3521
▁대다	-3522
▁바닥	-3523
▁얘길	-3524
▁사용자	-3525
▁올라가	-3526
▁선생님이	-3527
ite	-3528
led	-3529
ory	-3530
하려면	-3531
port	-3532
▁마리아	-3533
▁방황케	-3534
▁갇	-3535
롭게	-3536
ree	-3537
▁건강	-3538
▁건지	-3539
▁너네	-3540
▁보니	-3541
▁화가	-3542
▁계시한	-3543
▁인터넷	-3544
▁그들에게는	-3545
▁록	-3546
보자	-3547
▁기쁘	-3548
▁이슬	-3549
▁최악	-3550
▁싫어요	-3551
▁array	-3552
▁뒷	-3553
▁생긴	-3554
▁숨겨	-3555
▁자와	-3556
▁취소	-3557
▁엄마를	-3558
▁used	-3559
▁ad	-3560
▁돈이	-3561
▁통제	-3562
▁has	-3563
개를	-3564
▁경험	-3565
▁꿈을	-3566
했으니	-3567
▁She	-3568
▁엎	-3569
▁16	-3570
▁공포	-3571
▁모양	-3572
▁어찌	-3573
스럽게	-3574
웠어요	-3575
하지도	-3576
▁돌아왔	-3577
▁손가락	-3578
▁있으니까	-3579
▁딴	-3580
▁손에	-3581
▁쉽게	-3582
▁얼른	-3583
실래요	-3584
▁밴	-3585
말은	-3586
학교	-3587
▁사람의	-3588
우고	-3589
▁un	-3590
▁괴롭	-3591
▁누굴	-3592
▁목적	-3593
▁위로	-3594
▁꽃	-3595
▁홈	-3596
les	-3597
▁다녀	-3598
▁불행	-3599
▁생기	-3600
▁여왕	-3601
▁서로가	-3602
▁이유는	-3603
▁일하는	-3604
▁been	-3605
▁넣어	-3606
▁영국	-3607
▁태양	-3608
▁여자는	-3609
▁지금까지	-3610
ear	-3611
▁소녀	-3612
▁않게	-3613
▁직업	-3614
▁한잔	-3615
ount	-3616
▁것이요	-3617
AR	-3618
▁송	-3619
부가	-3620
▁같지	-3621
▁마리	-3622
▁줘요	-3623
▁에이미	-3624
▁있었노라	-3625
▁물이	-3626
▁오면	-3627
▁올바	-3628
▁피터	-3629
▁행위	-3630
▁할거야	-3631
▁환자를	-3632
SE	-3633
▁덜	-3634
ond	-3635
▁18	-3636
▁공주	-3637
▁성전	-3638
는거야	-3639
▁off	-3640
▁목숨을	-3641
▁있을까	-3642
error	-3643
▁만날	-3644
▁일찍	-3645
▁자살	-3646
▁진실을	-3647
▁거짓말을	-3648
였다	-3649
향을	-3650
▁그로	-3651
▁그쪽	-3652
▁재판	-3653
▁추방	-3654
▁끝났어	-3655
▁때마다	-3656
▁살아남	-3657
▁아니지만	-3658
tt	-3659
이드	-3660
per	-3661
▁간다	-3662
▁강한	-3663
▁다리	-3664
▁말로	-3665
▁은행	-3666
▁FBI	-3667
▁arg	-3668
▁메시지	-3669
▁사실은	-3670
▁질문을	-3671
만의	-3672
▁Ch	-3673
▁생활	-3674
▁내세를	-3675
▁아닌데	-3676
▁한다는	-3677
▁흠	-3678
년에	-3679
린다	-3680
심히	-3681
어졌	-3682
ance	-3683
▁경찰이	-3684
▁데려다	-3685
▁백성에게	-3686
로를	-3687
▁편지	-3688
▁자들의	-3689
▁프랭크	-3690
▁필요하	-3691
▁Well	-3692
셨죠	-3693
있지	-3694
쳤어	-3695
▁목표	-3696
▁변화	-3697
▁잡고	-3698
▁똑같은	-3699
드시	-3700
라니	-3701
▁3,	-3702
▁곳을	-3703
▁그룹	-3704
하겠습니다	-3705
상에	-3706
▁제임	-3707
▁테니	-3708
▁예증을	-3709
▁오늘밤	-3710
▁며칠	-3711
▁사냥	-3712
▁원하지	-3713
▁불신자들은	-3714
▁숫	-3715
렸을	-3716
▁들에게	-3717
▁뭔가를	-3718
▁충만하시니라	-3719
보게	-3720
get	-3721
▁Al	-3722
▁혈액	-3723
▁가족이	-3724
려요	-3725
▁갈게	-3726
▁놈을	-3727
▁살았	-3728
▁손님	-3729
▁슈퍼	-3730
▁우매	-3731
▁여기로	-3732
be	-3733
▁샌	-3734
▁셔	-3735
할까	-3736
ype	-3737
▁되죠	-3738
▁미치	-3739
▁지불	-3740
▁모세가	-3741
?"	-3742
ys	-3743
▁나이	-3744
▁보낼	-3745
▁저건	-3746
▁친절	-3747
▁겁니까	-3748
▁조금만	-3749
▁있을거야	-3750
▁핸	-3751
제가	-3752
▁서버	-3753
▁없네	-3754
▁우선	-3755
▁차에	-3756
▁침대	-3757
ough	-3758
▁길에서	-3759
▁비행기	-3760
던가	-3761
이뇨	-3762
▁남성	-3763
▁알죠	-3764
▁pro	-3765
▁무서운	-3766
▁런	-3767
▁빚	-3768
▁품	-3769
는걸	-3770
으려	-3771
토록	-3772
▁권한	-3773
▁두렵	-3774
▁상대	-3775
▁애를	-3776
▁pre	-3777
웠어	-3778
▁av	-3779
▁검색	-3780
▁나쁘	-3781
▁로스	-3782
▁예상	-3783
하도다	-3784
▁레지던	-3785
▁중이야	-3786
세를	-3787
▁단순	-3788
▁엉망	-3789
▁주었	-3790
▁태워	-3791
▁his	-3792
▁것보다	-3793
▁그럼요	-3794
▁혜	-3795
▁밤을	-3796
▁가세요	-3797
▁않노라	-3798
▁x	-3799
▁블랙	-3800
▁예수	-3801
▁도움을	-3802
▁쓰레기	-3803
▁반갑	-3804
▁알리	-3805
▁저게	-3806
▁own	-3807
▁나님은	-3808
▁찾아야	-3809
는다	-3810
함에	-3811
▁긴장	-3812
▁남았	-3813
▁위협	-3814
▁점점	-3815
▁표현	-3816
▁잊어버	-3817
▁more	-3818
▁르	-3819
ann	-3820
▁ag	-3821
▁gu	-3822
▁뭐요	-3823
▁Whe	-3824
▁있었을	-3825
▁콘	-3826
▁리라	-3827
▁스테	-3828
▁의무	-3829
▁케이	-3830
▁병원에	-3831
▁필요할	-3832
▁현세의	-3833
▁들었어요	-3834
▁믿음으로	-3835
▁should	-3836
▁둬	-3837
▁려	-3838
▁센	-3839
비를	-3840
사에	-3841
어로	-3842
▁눈이	-3843
▁제시	-3844
▁할수	-3845
그러	-3846
년간	-3847
조차	-3848
int	-3849
▁불렀	-3850
▁사람이야	-3851
▁지켜보고	-3852
▁weather	-3853
oh	-3854
▁담배	-3855
▁메이	-3856
▁정리	-3857
▁조각	-3858
▁사랑을	-3859
▁char	-3860
▁down	-3861
▁bo	-3862
▁되게	-3863
▁등을	-3864
▁사회	-3865
▁자주	-3866
▁들어갔	-3867
지로	-3868
▁말하였	-3869
▁이리와	-3870
ample	-3871
▁믿는자들이	-3872
▁곤	-3873
▁헨	-3874
같아	-3875
줬어	-3876
▁받게	-3877
▁수정	-3878
▁옷을	-3879
▁아내가	-3880
▁없지만	-3881
▁인간을	-3882
▁일이에요	-3883
ep	-3884
해봐	-3885
▁ph	-3886
▁담당	-3887
▁예쁜	-3888
▁총알	-3889
▁훔쳐	-3890
▁They	-3891
▁냉	-3892
▁켜	-3893
동생	-3894
문이	-3895
uck	-3896
▁TV	-3897
▁sa	-3898
▁까지	-3899
▁만족	-3900
▁반응	-3901
▁상기	-3902
▁오직	-3903
▁두려움	-3904
▁오말리	-3905
리게	-3906
리면	-3907
▁버렸	-3908
▁신발	-3909
▁왜요	-3910
▁자고	-3911
▁폭풍	-3912
▁해줘	-3913
▁way	-3914
▁데이터	-3915
▁만들고	-3916
▁소리야	-3917
▁않는다	-3918
▁우리와	-3919
▁저희를	-3920
▁진짜로	-3921
는거	-3922
분에	-3923
일러	-3924
▁mo	-3925
▁길이	-3926
▁마실	-3927
▁반복	-3928
으라고	-3929
▁알지만	-3930
▁외과의	-3931
▁친구들	-3932
▁하나가	-3933
▁너희들이	-3934
▁생각하고	-3935
▁했습니다	-3936
sh	-3937
ank	-3938
▁결혼식	-3939
▁다시는	-3940
▁말하면	-3941
▁어려운	-3942
▁저에게	-3943
건가	-3944
▁높이	-3945
▁수치	-3946
▁안내	-3947
▁왼쪽	-3948
▁차가	-3949
▁항목	-3950
▁def	-3951
▁이전의	-3952
▁같은데요	-3953
▁object	-3954
ew	-3955
ows	-3956
▁40	-3957
▁gr	-3958
▁같다	-3959
▁건물	-3960
▁낭송	-3961
▁말미	-3962
▁챙겨	-3963
없어요	-3964
▁아니예요	-3965
▁엠	-3966
▁웬	-3967
로우	-3968
▁교수	-3969
▁나올	-3970
▁비난	-3971
▁KDE	-3972
▁Yeah	-3973
▁하나님에	-3974
▁could	-3975
하되	-3976
▁도구	-3977
▁기억나	-3978
▁드디어	-3979
▁이슬람	-3980
▁good	-3981
▁뭐라고요	-3982
ql	-3983
▁4.	-3984
▁구할	-3985
▁둘러	-3986
▁들여	-3987
▁마라	-3988
▁방송	-3989
하려는	-3990
▁소리를	-3991
▁My	-3992
▁더욱	-3993
▁스카	-3994
▁아드	-3995
▁얻을	-3996
▁무리가	-3997
▁믿음이	-3998
▁컴퓨터	-3999
cause	-4000
▁젖	-4001
주일	-4002
▁그에	-4003
▁수행	-4004
▁슬론	-4005
▁어땠	-4006
▁인류	-4007
▁힘이	-4008
▁남편이	-4009
▁argument	-4010
NT	-4011
소를	-4012
▁네게	-4013
▁어렵	-4014
▁오랫	-4015
▁판단	-4016
▁브라이	-4017
▁환자는	-4018
▁거리	-4019
▁납치	-4020
▁없애	-4021
▁string	-4022
▁거부	-4023
▁배신	-4024
▁비를	-4025
▁파트	-4026
▁예배를	-4027
▁불신자들이	-4028
▁option	-4029
▁김	-4030
▁좆	-4031
▁탓	-4032
거다	-4033
ach	-4034
▁--	-4035
▁검은	-4036
▁기쁨	-4037
▁때도	-4038
해야지	-4039
irst	-4040
▁얘기가	-4041
▁자기야	-4042
▁말입니다	-4043
▁선지자를	-4044
▁셜	-4045
▁족	-4046
시라	-4047
자야	-4048
했네	-4049
ait	-4050
▁슬픔	-4051
)...	-4052
▁필요는	-4053
▁겸	-4054
▁뺏	-4055
줄래	-4056
▁나은	-4057
▁매니	-4058
▁목소	-4059
▁염원	-4060
▁장군	-4061
▁화면	-4062
▁회복	-4063
으로써	-4064
▁열심히	-4065
▁오른쪽	-4066
▁위험한	-4067
▁주시고	-4068
▁톰	-4069
외과	-4070
원에	-4071
▁구멍	-4072
▁베이	-4073
▁용의	-4074
▁피를	-4075
▁모습을	-4076
▁보여요	-4077
▁anything	-4078
▁뿌	-4079
씨가	-4080
었나	-4081
워야	-4082
해라	-4083
▁걸릴	-4084
▁목격	-4085
▁숨어	-4086
▁슬퍼	-4087
▁싸움	-4088
▁운이	-4089
▁계획이	-4090
▁따르는	-4091
▁문제를	-4092
▁오랫동안	-4093
하긴	-4094
▁관해	-4095
▁스크	-4096
▁쓰고	-4097
▁말이다	-4098
▁의사가	-4099
가에	-4100
으신	-4101
촬영	-4102
▁계약	-4103
▁도래	-4104
▁선행	-4105
▁있니	-4106
▁자격	-4107
▁점심	-4108
이었죠	-4109
▁가까운	-4110
▁가봐야	-4111
▁절대로	-4112
▁제발요	-4113
ittle	-4114
▁물론이죠	-4115
님을	-4116
해지	-4117
▁던져	-4118
▁응급	-4119
테니까	-4120
▁못해요	-4121
▁방법은	-4122
▁소리가	-4123
▁were	-4124
▁아니었어	-4125
▁여자친구	-4126
▁있을까요	-4127
▁윈	-4128
▁14	-4129
▁일본	-4130
▁장치	-4131
▁거잖아	-4132
▁보상이	-4133
▁아이고	-4134
▁영혼을	-4135
▁자신이	-4136
▁하도록	-4137
▁누군가가	-4138
).	-4139
▁괴물	-4140
▁낭비	-4141
▁번성	-4142
▁자매	-4143
▁이르렀	-4144
▁인간의	-4145
ameter	-4146
▁빅	-4147
라엘	-4148
암아	-4149
▁머물	-4150
▁살펴	-4151
하느뇨	-4152
▁어떠한	-4153
▁other	-4154
▁고을	-4155
▁다신	-4156
▁루크	-4157
▁맞춰	-4158
▁섹시	-4159
▁옵션	-4160
▁전달	-4161
했는지	-4162
▁그들에	-4163
▁있겠지	-4164
▁않는다면	-4165
ailable	-4166
ph	-4167
▁문서	-4168
▁love	-4169
▁그렇다고	-4170
▁움직이지	-4171
▁going	-4172
▁액	-4173
니아	-4174
▁강력	-4175
▁구조	-4176
▁심지어	-4177
만에	-4178
일세	-4179
장은	-4180
▁po	-4181
▁만한	-4182
▁영생	-4183
▁운동	-4184
▁크기	-4185
▁것이니	-4186
▁인생을	-4187
▁있었고	-4188
▁백성들을	-4189
▁하는거야	-4190
▁걘	-4191
▁링	-4192
감이	-4193
끼리	-4194
보면	-4195
▁am	-4196
▁el	-4197
▁지하	-4198
께서는	-4199
▁가만히	-4200
▁나오는	-4201
umber	-4202
▁does	-4203
하군	-4204
다시피	-4205
에서의	-4206
▁프로젝	-4207
▁할게요	-4208
▁당신한테	-4209
▁댄	-4210
려서	-4211
자면	-4212
▁An	-4213
▁건너	-4214
▁기울	-4215
▁보스	-4216
▁어떨	-4217
▁사람도	-4218
▁않도록	-4219
other	-4220
▁returns	-4221
으론	-4222
ath	-4223
▁분노	-4224
▁불안	-4225
▁얻은	-4226
▁자꾸	-4227
▁학생	-4228
때까지	-4229
▁hand	-4230
▁every	-4231
▁]	-4232
▁앗	-4233
▁먹는	-4234
▁무릎	-4235
▁왕국	-4236
▁폐하	-4237
ated	-4238
▁new	-4239
▁당신들	-4240
▁모두들	-4241
▁아세요	-4242
▁우매한	-4243
▁제임스	-4244
▁아버지를	-4245
bo	-4246
나무	-4247
자식	-4248
▁In	-4249
▁듣지	-4250
▁배반	-4251
▁저거	-4252
▁그치만	-4253
▁모르지	-4254
▁소식을	-4255
▁했노라	-4256
하였더라	-4257
▁낸	-4258
▁핵	-4259
도로	-4260
라인	-4261
법을	-4262
점이	-4263
체가	-4264
put	-4265
▁25	-4266
▁Qu	-4267
▁기간	-4268
▁님은	-4269
▁떠난	-4270
▁마셔	-4271
▁약을	-4272
▁평범	-4273
▁흥분	-4274
겠다는	-4275
▁보이기	-4276
▁come	-4277
것이	-4278
났어	-4279
▁방에	-4280
▁스파	-4281
▁집어	-4282
하는지	-4283
하시니	-4284
▁sup	-4285
▁카레브	-4286
▁페이지	-4287
\\	-4288
▁컨	-4289
방에	-4290
볼게	-4291
old	-4292
▁방식	-4293
▁안좋	-4294
▁상황을	-4295
▁없으면	-4296
▁못하느뇨	-4297
▁실례합니다	-4298
ody	-4299
▁17	-4300
▁공부	-4301
▁될까	-4302
▁일로	-4303
▁자연	-4304
더라도	-4305
▁안전한	-4306
▁잃어버	-4307
▁했다고	-4308
▁call	-4309
▁뿐이에요	-4310
▁있습니까	-4311
▁몫	-4312
워서	-4313
▁고객	-4314
▁딸이	-4315
▁배를	-4316
▁쓰는	-4317
▁아나	-4318
▁속에서	-4319
▁받아들이	-4320
님의	-4321
▁말며	-4322
▁맞죠	-4323
▁방문	-4324
▁안된	-4325
▁잊지	-4326
으로는	-4327
▁how	-4328
▁변호사	-4329
▁모두에게	-4330
▁available	-4331
▁교회	-4332
▁왔다	-4333
▁응답	-4334
▁잘라	-4335
▁쿠키	-4336
▁받아들	-4337
▁선택한	-4338
▁있거든	-4339
▁이들에게	-4340
▁error	-4341
▁믿는자들이여	-4342
▁같네	-4343
▁공간	-4344
▁말아	-4345
▁오신	-4346
▁종양	-4347
하는게	-4348
▁그거야	-4349
▁못하게	-4350
▁베풀어	-4351
▁정도로	-4352
▁make	-4353
▁우리한테	-4354
11	-4355
ft	-4356
▁휘	-4357
말이	-4358
번호	-4359
어스	-4360
전을	-4361
ari	-4362
ery	-4363
opt	-4364
▁신을	-4365
▁그랬지	-4366
▁기회가	-4367
▁생각할	-4368
▁아니오	-4369
▁그녀에게	-4370
말로	-4371
품을	-4372
ark	-4373
ert	-4374
▁막을	-4375
▁셜록	-4376
▁이들	-4377
▁줄게	-4378
ield	-4379
▁데스크	-4380
▁일이죠	-4381
▁당연하지	-4382
느냐	-4383
점을	-4384
주면	-4385
eep	-4386
▁일곱	-4387
이었지	-4388
ALSE	-4389
▁기다릴	-4390
▁전까지	-4391
▁There	-4392
사의	-4393
▁가난	-4394
▁놈은	-4395
▁리처	-4396
▁무너	-4397
▁오후	-4398
▁증오	-4399
▁평안	-4400
▁하면서	-4401
▁charact	-4402
▁굳	-4403
가가	-4404
보단	-4405
▁TR	-4406
▁더라	-4407
▁배고	-4408
▁있단	-4409
릅니다	-4410
itle	-4411
▁굉장히	-4412
▁따르지	-4413
▁아름답	-4414
▁파트너	-4415
자들에게	-4416
▁삽	-4417
생활	-4418
어질	-4419
▁귀를	-4420
▁루시퍼	-4421
▁말미암아	-4422
▁있는거야	-4423
▁끝난	-4424
▁눈에	-4425
▁서명	-4426
▁쓰러	-4427
▁이기	-4428
어야지	-4429
▁넓	-4430
관을	-4431
▁됐다	-4432
이지만	-4433
▁남자는	-4434
▁창조한	-4435
▁into	-4436
▁남자친구	-4437
▁FALSE	-4438
ec	-4439
고를	-4440
지게	-4441
▁시민	-4442
▁최선	-4443
이라니	-4444
했다면	-4445
▁살아있	-4446
▁천사들이	-4447
eg	-4448
▁유대	-4449
▁탈출	-4450
▁대단한	-4451
▁아기를	-4452
▁완벽한	-4453
▁죽이고	-4454
▁little	-4455
▁$	-4456
▁람	-4457
▁CD	-4458
▁부러	-4459
▁만약에	-4460
▁예증이	-4461
▁저지른	-4462
▁찾았어	-4463
▁텍스트	-4464
▁사랑해요	-4465
▁13	-4466
자에게	-4467
▁최대한	-4468
▁최선을	-4469
▁else	-4470
▁사람들의	-4471
wo	-4472
▁갔다	-4473
▁다이	-4474
▁받으	-4475
▁소용	-4476
▁이식	-4477
▁재생	-4478
▁전지	-4479
▁전하	-4480
▁had	-4481
▁엎드려	-4482
상은	-4483
우는	-4484
이터	-4485
테니	-4486
히려	-4487
ght	-4488
▁Do	-4489
▁갔어	-4490
▁와우	-4491
▁죽고	-4492
이었다	-4493
▁All	-4494
▁too	-4495
▁앉아서	-4496
▁했는지	-4497
르지	-4498
▁가정	-4499
▁완료	-4500
▁조종	-4501
옵니다	-4502
▁거역한	-4503
▁없으니	-4504
▁테스트	-4505
▁뚫	-4506
느라	-4507
드의	-4508
우리	-4509
져요	-4510
ish	-4511
▁24	-4512
▁공연	-4513
▁바른	-4514
▁즐거	-4515
에게로	-4516
▁bet	-4517
▁이름으로	-4518
▁which	-4519
▁parameter	-4520
바로	-4521
▁경계	-4522
▁고용	-4523
▁기능	-4524
▁깨어	-4525
▁몸이	-4526
▁쉬운	-4527
▁이따	-4528
▁저리	-4529
▁주사	-4530
▁바라는	-4531
▁첫번째	-4532
AT	-4533
했나	-4534
▁Sh	-4535
▁wr	-4536
▁거두	-4537
▁두셨	-4538
▁몇몇	-4539
▁봐봐	-4540
▁수영	-4541
▁현실	-4542
스러워	-4543
했다는	-4544
▁따르면	-4545
▁사진을	-4546
iv	-4547
▁쌍	-4548
분의	-4549
서가	-4550
져서	-4551
▁마침	-4552
▁물리	-4553
▁잡을	-4554
▁주실	-4555
▁체크	-4556
건가요	-4557
▁누구든	-4558
▁밖에서	-4559
▁이스라엘	-4560
▁웹	-4561
▁혐	-4562
000	-4563
▁무언	-4564
▁불을	-4565
▁어두	-4566
▁에드	-4567
▁이루	-4568
▁주의	-4569
▁촬영	-4570
▁된다고	-4571
▁클레어	-4572
▁then	-4573
▁example	-4574
정한	-4575
▁bu	-4576
▁바꿀	-4577
▁앨리	-4578
▁친척	-4579
▁감옥에	-4580
▁그것에	-4581
▁쉐퍼드	-4582
▁좋아해	-4583
▁스티븐스	-4584
df	-4585
▁끄	-4586
름을	-4587
야죠	-4588
▁런던	-4589
▁생존	-4590
▁입을	-4591
▁장식	-4592
하고는	-4593
▁찌	-4594
ada	-4595
▁겨우	-4596
▁버리	-4597
▁이로	-4598
▁찾은	-4599
▁통화	-4600
▁파블	-4601
▁했고	-4602
▁계획을	-4603
▁캡	-4604
▁튀	-4605
지기	-4606
▁이웃	-4607
▁있기	-4608
▁정치	-4609
▁내보내	-4610
▁알았다	-4611
▁work	-4612
▁never	-4613
해줘	-4614
▁대령	-4615
▁메시	-4616
▁숙녀	-4617
▁아담	-4618
▁내려가	-4619
▁서로를	-4620
▁찢	-4621
로드	-4622
ale	-4623
▁근무	-4624
▁단추	-4625
▁봤지	-4626
▁최후	-4627
▁기억이	-4628
▁반드시	-4629
▁시작할	-4630
▁이들을	-4631
▁하라고	-4632
▁하나님으로부터	-4633
센트	-4634
set	-4635
▁짜증	-4636
▁한마	-4637
▁our	-4638
▁대지를	-4639
▁말해야	-4640
▁아니었	-4641
▁백성들이	-4642
관님	-4643
인과	-4644
▁노예	-4645
▁들의	-4646
▁와요	-4647
▁집이	-4648
▁충격	-4649
▁하신	-4650
▁꾸란을	-4651
▁할까요	-4652
▁렉	-4653
내고	-4654
사랑	-4655
▁도둑	-4656
▁메리	-4657
▁아내를	-4658
▁올바른	-4659
ix	-4660
명은	-4661
▁귀여	-4662
▁발표	-4663
▁어째	-4664
▁이놈	-4665
▁그동안	-4666
▁말하니	-4667
▁물러서	-4668
▁신경쓰	-4669
▁이후로	-4670
▁죽음을	-4671
케이	-4672
▁기계	-4673
▁빼고	-4674
▁숨을	-4675
▁이렇	-4676
▁주장	-4677
▁클럽	-4678
하다는	-4679
▁거역하	-4680
▁남자를	-4681
▁♬	-4682
▁멜	-4683
▁경비	-4684
▁아픈	-4685
name	-4686
▁beh	-4687
▁그러는	-4688
▁모르고	-4689
▁일어날	-4690
▁without	-4691
▁몽	-4692
▁구역	-4693
▁동반	-4694
▁하이	-4695
으면서	-4696
▁아닌가	-4697
▁over	-4698
았지	-4699
주를	-4700
▁몸을	-4701
▁무사	-4702
▁실천	-4703
▁옮겨	-4704
▁요셉	-4705
▁관용을	-4706
▁친구를	-4707
▁change	-4708
cl	-4709
▁댁	-4710
▁율	-4711
시킨	-4712
야만	-4713
▁같군	-4714
▁모자	-4715
▁부를	-4716
▁요리	-4717
▁적은	-4718
▁해변	-4719
▁che	-4720
▁간호사	-4721
▁말했어	-4722
▁필요로	-4723
▁말하기를	-4724
▁이쪽으로	-4725
▁낼	-4726
▁닮	-4727
부에	-4728
erm	-4729
야겠어	-4730
▁사라졌	-4731
▁압니다	-4732
▁레지던트	-4733
▁씻	-4734
도는	-4735
분을	-4736
유의	-4737
▁sy	-4738
▁누르	-4739
▁발사	-4740
▁변호	-4741
▁보관	-4742
▁빛을	-4743
▁얘긴	-4744
▁예정	-4745
▁들어요	-4746
▁있네요	-4747
▁크리스마스	-4748
▁action	-4749
▁싱	-4750
건지	-4751
래도	-4752
머리	-4753
으되	-4754
할지	-4755
▁직원	-4756
봤어요	-4757
한거야	-4758
▁따라와	-4759
▁오히려	-4760
▁그리하면	-4761
▁여기까지	-4762
▁했잖아요	-4763
소에	-4764
▁거니	-4765
▁나누	-4766
▁됐지	-4767
▁붙어	-4768
▁원해	-4769
▁카드	-4770
봤는데	-4771
▁How	-4772
▁day	-4773
▁몰라도	-4774
▁데스크톱	-4775
▁{	-4776
▁깔	-4777
▁멀쩡	-4778
▁슬프	-4779
▁시위	-4780
▁오웬	-4781
▁유예	-4782
▁그런거	-4783
▁시간은	-4784
▁여기요	-4785
▁take	-4786
▁흙	-4787
체를	-4788
avi	-4789
▁게이	-4790
▁붙잡	-4791
▁어리	-4792
했지만	-4793
▁title	-4794
ML	-4795
▁뇨	-4796
▁엑	-4797
러운	-4798
증을	-4799
▁선수	-4800
▁안나	-4801
▁참여	-4802
겠구나	-4803
시키고	-4804
▁세상에서	-4805
▁그렇습니다	-4806
▁묘	-4807
수록	-4808
▁대비	-4809
▁동네	-4810
▁소년	-4811
▁졸업	-4812
▁홀로	-4813
▁그렇고	-4814
드립니다	-4815
▁펼	-4816
라구	-4817
▁운영	-4818
▁좋다	-4819
▁해볼	-4820
ling	-4821
▁심각한	-4822
▁용서를	-4823
▁해야지	-4824
▁first	-4825
동맥	-4826
ton	-4827
▁ap	-4828
▁가축	-4829
▁것들	-4830
▁동작	-4831
▁명이	-4832
▁솔로	-4833
▁피가	-4834
▁싶으면	-4835
▁모르지만	-4836
인다	-4837
▁국가	-4838
▁어딜	-4839
▁죽지	-4840
▁희가	-4841
urns	-4842
▁너회가	-4843
▁일주일	-4844
▁죽이는	-4845
▁분이시라	-4846
▁친구들이	-4847
▁말하였더라	-4848
갔어	-4849
야해	-4850
▁디렉	-4851
▁법을	-4852
▁생성	-4853
▁존경	-4854
▁짐을	-4855
줬어요	-4856
파이어	-4857
▁모든게	-4858
▁식으로	-4859
▁주리라	-4860
▁프랑스	-4861
▁걱정하지	-4862
▁죽었어요	-4863
▁value	-4864
자리	-4865
증이	-4866
함은	-4867
▁내내	-4868
▁방향	-4869
▁예중	-4870
▁일치	-4871
▁통과	-4872
▁활동	-4873
tern	-4874
▁글쎄요	-4875
▁자리를	-4876
▁_	-4877
ten	-4878
▁곳은	-4879
▁let	-4880
▁알려주	-4881
▁알았죠	-4882
▁일이지	-4883
og	-4884
상의	-4885
▁느뇨	-4886
▁무덤	-4887
▁조니	-4888
▁구하고	-4889
▁기억해	-4890
ified	-4891
▁open	-4892
구를	-4893
너희	-4894
분은	-4895
ild	-4896
ose	-4897
▁날려	-4898
▁마련	-4899
▁분의	-4900
▁원치	-4901
▁결정을	-4902
▁떨어진	-4903
▁실제로	-4904
▁하심이라	-4905
option	-4906
aw	-4907
▁듯	-4908
▁펜	-4909
미터	-4910
스키	-4911
시를	-4912
▁걔네	-4913
▁니라	-4914
▁역사	-4915
▁조건	-4916
▁불쌍한	-4917
▁생각에	-4918
▁없다면	-4919
▁오래된	-4920
▁자비를	-4921
▁빵	-4922
▁혀	-4923
렸다	-4924
트로	-4925
페인	-4926
▁sp	-4927
▁역할	-4928
▁이틀	-4929
▁해고	-4930
▁혼란	-4931
▁않았다	-4932
▁없어서	-4933
▁이유를	-4934
▁있으나	-4935
▁3.0.	-4936
▁너희들은	-4937
대의	-4938
▁수고	-4939
▁유령	-4940
▁목소리	-4941
▁안으로	-4942
▁이러지	-4943
▁모르겠네요	-4944
▁number	-4945
▁밟	-4946
었네	-4947
▁돌봐	-4948
▁딸을	-4949
▁수업	-4950
▁잃은	-4951
▁그걸로	-4952
▁준비해	-4953
ccess	-4954
▁4.0.	-4955
▁기다리는	-4956
▁짧	-4957
상태	-4958
셔도	-4959
이자	-4960
▁가도	-4961
▁메모	-4962
▁무섭	-4963
▁영역	-4964
▁테디	-4965
▁핸드	-4966
장으로	-4967
▁위치를	-4968
▁하시니	-4969
▁당신들이	-4970
겼어	-4971
드레	-4972
잖나	-4973
▁Go	-4974
▁것만	-4975
▁설마	-4976
▁나가서	-4977
▁행운을	-4978
▁where	-4979
나봐	-4980
워크	-4981
▁그후	-4982
▁로그	-4983
▁신고	-4984
▁수술이	-4985
▁아이는	-4986
▁알아내	-4987
▁종류의	-4988
▁진정한	-4989
dition	-4990
차피	-4991
해질	-4992
ial	-4993
▁로빈	-4994
▁리가	-4995
▁무지	-4996
▁싸울	-4997
▁Ret	-4998
▁고통을	-4999
▁머리에	-5000
▁인간이	-5001
▁result	-5002
▁쉴	-5003
라스	-5004
일리	-5005
일은	-5006
▁맡아	-5007
▁몰래	-5008
▁프레	-5009
▁더하여	-5010
▁물어봐	-5011
▁빠져나	-5012
▁아래로	-5013
▁준비됐	-5014
▁바랍니다	-5015
▁왔습니다	-5016
▁찾았어요	-5017
▁봅	-5018
와서	-5019
▁공식	-5020
▁때면	-5021
▁맥스	-5022
▁신사	-5023
▁혹은	-5024
▁홈즈	-5025
더라면	-5026
▁짓이야	-5027
▁하나만	-5028
더라고요	-5029
▁좋겠어요	-5030
▁불신자들을	-5031
▁릭	-5032
간다	-5033
▁대항	-5034
▁책을	-5035
하리니	-5036
▁mat	-5037
▁되는데	-5038
▁어차피	-5039
▁이곳에	-5040
▁didn	-5041
▁셈	-5042
셨어	-5043
히는	-5044
▁곁에	-5045
▁기사	-5046
▁두어	-5047
▁명예	-5048
▁쓰지	-5049
▁테러	-5050
▁하네	-5051
였는데	-5052
ress	-5053
▁가져다	-5054
▁같군요	-5055
▁사장님	-5056
▁심장이	-5057
▁있더라	-5058
▁item	-5059
▁tell	-5060
▁없잖아요	-5061
▁순결	-5062
▁식사	-5063
▁엔진	-5064
▁완성	-5065
▁착한	-5066
▁청소	-5067
▁회의	-5068
▁여동생	-5069
▁흐르는	-5070
▁늑	-5071
▁썩	-5072
종일	-5073
oth	-5074
ull	-5075
▁고아	-5076
▁고정	-5077
▁반환	-5078
▁스튜	-5079
▁신뢰	-5080
▁사람과	-5081
▁얘기는	-5082
▁도와줘요	-5083
▁contain	-5084
▁고등	-5085
▁놀랍	-5086
▁놈들	-5087
▁누나	-5088
▁대위	-5089
▁설득	-5090
▁손이	-5091
▁시켜	-5092
적이고	-5093
▁수술에	-5094
▁그렇군요	-5095
▁처음으로	-5096
RL	-5097
스티	-5098
▁ke	-5099
▁개의	-5100
▁고쳐	-5101
▁도우	-5102
▁정직	-5103
▁풍성	-5104
오르는	-5105
ener	-5106
▁갈게요	-5107
▁뭐예요	-5108
▁하잖아	-5109
te	-5110
권을	-5111
성화	-5112
있고	-5113
짜리	-5114
표를	-5115
IME	-5116
isk	-5117
▁Be	-5118
▁대니	-5119
▁두개	-5120
▁밤새	-5121
▁세워	-5122
▁안해	-5123
▁이겨	-5124
냈어요	-5125
었으니	-5126
▁때문이야	-5127
▁좋아하지	-5128
▁something	-5129
▁멕	-5130
번에	-5131
수의	-5132
워드	-5133
sel	-5134
▁베푼	-5135
▁어른	-5136
▁익숙	-5137
orry	-5138
▁이제는	-5139
▁사람에게	-5140
▁좋습니다	-5141
▁있었습니다	-5142
기엔	-5143
다른	-5144
▁길에	-5145
▁시각	-5146
▁은하	-5147
▁휴대	-5148
시키는	-5149
▁시간에	-5150
▁싶었어	-5151
▁이쪽은	-5152
▁아이들이	-5153
▁엄마한테	-5154
운드	-5155
적을	-5156
터리	-5157
한거	-5158
▁부복	-5159
▁사귀	-5160
▁안될	-5161
▁언론	-5162
▁협박	-5163
▁당신께	-5164
▁보내어	-5165
▁음식을	-5166
▁하니까	-5167
▁하시는	-5168
▁선지자들을	-5169
optional	-5170
NA	-5171
▁굶	-5172
가고	-5173
길래	-5174
단을	-5175
보니	-5176
중한	-5177
ian	-5178
▁걸요	-5179
▁우연	-5180
▁너희에	-5181
▁물건을	-5182
드릴게요	-5183
하셨어요	-5184
▁좋아해요	-5185
▁중입니다	-5186
nu	-5187
이게	-5188
▁늙은	-5189
▁단계	-5190
▁단어	-5191
▁대가	-5192
▁따뜻	-5193
▁상담	-5194
▁이만	-5195
▁채널	-5196
쳤어요	-5197
▁이상의	-5198
▁자리에	-5199
▁혼자서	-5200
▁얘기하고	-5201
▁사람들이여	-5202
는요	-5203
ife	-5204
▁금기	-5205
▁악을	-5206
▁제기	-5207
▁주말	-5208
▁플러	-5209
▁ser	-5210
▁느낌이	-5211
▁신앙인	-5212
▁심장을	-5213
▁인하여	-5214
▁형사님	-5215
▁Canada	-5216
▁functions	-5217
ng	-5218
▁맺	-5219
당히	-5220
둥이	-5221
말고	-5222
▁둘은	-5223
▁부하	-5224
▁붙여	-5225
▁주문	-5226
fore	-5227
▁말해줘	-5228
▁말했잖아	-5229
▁측	-5230
버린	-5231
시가	-5232
irl	-5233
▁나면	-5234
▁다운	-5235
▁배가	-5236
▁숨기	-5237
▁유리	-5238
▁클리	-5239
뿐이야	-5240
옵소서	-5241
▁hap	-5242
▁바이러	-5243
▁소식이	-5244
▁실수를	-5245
▁않아도	-5246
▁모르겠다	-5247
▁미안하지만	-5248
경을	-5249
많은	-5250
어리	-5251
▁갖게	-5252
▁끝날	-5253
▁날아	-5254
▁놓고	-5255
▁않으	-5256
▁애는	-5257
▁용감	-5258
▁중재	-5259
드리죠	-5260
▁Don	-5261
▁언젠가	-5262
▁가로	-5263
▁실종	-5264
▁예를	-5265
▁잘해	-5266
▁프리	-5267
▁해악	-5268
줍니다	-5269
▁만유의	-5270
▁재산을	-5271
▁중에서	-5272
▁한번도	-5273
irect	-5274
▁반가워요	-5275
▁자들에게는	-5276
▁really	-5277
된다	-5278
디슨	-5279
▁id	-5280
▁강요	-5281
▁바쁘	-5282
이군요	-5283
했노라	-5284
▁For	-5285
▁걱정마	-5286
▁냄새가	-5287
▁드라이	-5288
▁안되는	-5289
▁엄마랑	-5290
▁자들과	-5291
있습니다	-5292
▁당신께서	-5293
▁원한다면	-5294
OR	-5295
▁눌	-5296
라서	-5297
정에	-5298
졌다	-5299
질을	-5300
ily	-5301
▁상속	-5302
▁식당	-5303
▁자선	-5304
▁지지	-5305
▁되도록	-5306
▁문제야	-5307
▁버리고	-5308
▁세상이	-5309
▁아빠를	-5310
▁영광을	-5311
▁그랬어요	-5312
▁백성들에게	-5313
cod	-5314
▁22	-5315
▁네트	-5316
▁새벽	-5317
려고요	-5318
onst	-5319
▁같아서	-5320
▁은혜가	-5321
▁자선을	-5322
▁아이들을	-5323
▁start	-5324
▁currently	-5325
▁z	-5326
원의	-5327
ign	-5328
uch	-5329
▁걸리	-5330
▁달아	-5331
▁되찾	-5332
▁빨간	-5333
▁수백	-5334
▁우상	-5335
▁이길	-5336
▁저랑	-5337
▁질투	-5338
▁찾기	-5339
▁카라	-5340
▁스타일	-5341
▁data	-5342
▁Z	-5343
당신	-5344
터가	-5345
▁빠진	-5346
▁빼앗	-5347
▁신의	-5348
▁혈압	-5349
▁그러다	-5350
▁부르는	-5351
▁아무리	-5352
▁않았을	-5353
▁않지만	-5354
▁진실한	-5355
▁하나는	-5356
▁안전하게	-5357
▁behavi	-5358
ru	-5359
받는	-5360
ise	-5361
▁다물	-5362
▁분리	-5363
▁쓸모	-5364
▁캘리	-5365
▁이것을	-5366
▁물론이지	-5367
미가	-5368
▁손실	-5369
▁연기	-5370
▁지어	-5371
▁Yes	-5372
▁ver	-5373
▁가져올	-5374
▁얼굴에	-5375
▁있는거	-5376
▁중에는	-5377
ollow	-5378
▁사랑하지	-5379
▁있었다면	-5380
▁델	-5381
절한	-5382
▁가기	-5383
▁가짜	-5384
▁걸려	-5385
▁날짜	-5386
▁사항	-5387
▁약혼	-5388
▁몰랐어	-5389
▁미스터	-5390
▁부끄러	-5391
▁출혈이	-5392
ormation	-5393
▁갚	-5394
▁딜	-5395
▁샀	-5396
▁건배	-5397
▁맥주	-5398
▁벌어	-5399
▁능력을	-5400
▁덕분에	-5401
▁말해주	-5402
▁있는게	-5403
▁거역하고	-5404
▁있었는지	-5405
시기	-5406
줌마	-5407
orn	-5408
▁고향	-5409
▁넘겨	-5410
▁더는	-5411
▁돌리	-5412
▁되요	-5413
▁맞았	-5414
▁왕이	-5415
▁이모	-5416
▁형식	-5417
스에서	-5418
집니다	-5419
하는거	-5420
해서요	-5421
▁결과를	-5422
▁마이클	-5423
▁위에서	-5424
▁전지전	-5425
▁최악의	-5426
▁거역하는	-5427
▁글로리아	-5428
▁color	-5429
▁Returns	-5430
▁꼼	-5431
받을	-5432
싶어	-5433
할수	-5434
box	-5435
▁각각	-5436
▁거긴	-5437
▁기관	-5438
▁느낄	-5439
▁돼지	-5440
▁무슨일	-5441
▁사이의	-5442
▁아내는	-5443
▁자네를	-5444
▁정말요	-5445
▁했으니	-5446
하는거야	-5447
▁thing	-5448
이의	-5449
iff	-5450
▁다루	-5451
▁도로	-5452
▁여름	-5453
▁왔을	-5454
▁주어	-5455
▁주차	-5456
▁충돌	-5457
▁코너	-5458
한테도	-5459
▁고양이	-5460
▁백성들	-5461
▁죽였어	-5462
▁천지의	-5463
▁하려는	-5464
▁행복한	-5465
▁fore	-5466
▁아니라면	-5467
▁있었으니	-5468
▁해주세요	-5469
▁아니잖아요	-5470
드로	-5471
▁Is	-5472
▁귀엽	-5473
▁나에	-5474
▁몸에	-5475
▁불법	-5476
▁열차	-5477
▁장기	-5478
▁재능	-5479
▁봤는데	-5480
▁없네요	-5481
▁우상을	-5482
▁은혜로	-5483
이라고요	-5484
▁type	-5485
▁아버지의	-5486
▁진심으로	-5487
▁불신자들에게	-5488
ob	-5489
▁셀	-5490
년을	-5491
라리	-5492
원은	-5493
한게	-5494
▁님의	-5495
▁언급	-5496
▁이끌	-5497
▁잡았	-5498
▁흔들	-5499
▁나머지	-5500
▁있겠어	-5501
▁당신들은	-5502
▁않았습니다	-5503
말을	-5504
부의	-5505
였고	-5506
이기	-5507
주에	-5508
해줄	-5509
PER	-5510
▁60	-5511
▁기차	-5512
▁듣는	-5513
▁복사	-5514
▁불편	-5515
▁우편	-5516
▁저와	-5517
▁진지	-5518
nder	-5519
▁확실해	-5520
▁talk	-5521
▁네트워크	-5522
▁께	-5523
▁bl	-5524
▁깊은	-5525
▁내렸	-5526
▁익사	-5527
▁조언	-5528
상으로	-5529
▁201	-5530
▁two	-5531
▁그러죠	-5532
▁데려와	-5533
▁때문이	-5534
▁받아야	-5535
▁애들을	-5536
cript	-5537
▁mean	-5538
▁read	-5539
▁몬	-5540
▁쐈	-5541
day	-5542
▁누워	-5543
▁버릴	-5544
▁분석	-5545
▁인형	-5546
▁fut	-5547
▁근처에	-5548
▁물어보	-5549
▁비밀을	-5550
▁좋네요	-5551
▁죽이지	-5552
▁너희들의	-5553
▁메세지를	-5554
▁있거든요	-5555
▁지상에서	-5556
UE	-5557
▁덩	-5558
▁퀸	-5559
니깐	-5560
▁sc	-5561
▁공급	-5562
▁때려	-5563
▁막아	-5564
▁메뉴	-5565
▁있음	-5566
▁즐기	-5567
▁지루	-5568
▁얼굴이	-5569
▁진실로	-5570
▁comp	-5571
▁future	-5572
버트	-5573
소가	-5574
row	-5575
▁감추	-5576
▁모니	-5577
▁부서	-5578
▁오게	-5579
▁작성	-5580
라구요	-5581
속에서	-5582
인으로	-5583
▁des	-5584
▁개자식	-5585
▁상태가	-5586
▁쪽으로	-5587
▁천국에	-5588
▁must	-5589
▁than	-5590
▁가운데서	-5591
▁못하더라	-5592
▁병원에서	-5593
▁숭배하는	-5594
▁이해하지	-5595
시코	-5596
위해	-5597
odu	-5598
▁감독	-5599
▁고장	-5600
▁내릴	-5601
▁목을	-5602
▁색상	-5603
▁전엔	-5604
▁지휘	-5605
▁출신	-5606
▁거라면	-5607
▁들어왔	-5608
▁지금도	-5609
▁최소한	-5610
였습니다	-5611
▁서로에게	-5612
▁킹	-5613
디아	-5614
▁구경	-5615
▁땅에	-5616
▁릴리	-5617
▁천재	-5618
▁인터뷰	-5619
▁part	-5620
PI	-5621
선생	-5622
있게	-5623
집에	-5624
ues	-5625
▁'%	-5626
▁간에	-5627
▁걸렸	-5628
▁떠올	-5629
▁만드	-5630
▁봐라	-5631
▁오르	-5632
▁치즈	-5633
▁헨리	-5634
던데요	-5635
ways	-5636
▁Use	-5637
▁내리게	-5638
▁리처드	-5639
▁오세요	-5640
▁자네의	-5641
것은	-5642
놨어	-5643
오고	-5644
트리	-5645
▁걸린	-5646
▁겸손	-5647
▁뜻에	-5648
▁보일	-5649
▁외면	-5650
▁제한	-5651
ious	-5652
▁가져왔	-5653
▁달라고	-5654
▁함장님	-5655
▁기다려요	-5656
▁덤	-5657
▁및	-5658
▁밑에	-5659
▁서두	-5660
▁스케	-5661
▁올게	-5662
▁요새	-5663
▁파이	-5664
▁플로	-5665
▁드리고	-5666
▁문자열	-5667
▁form	-5668
▁알다시피	-5669
나서	-5670
든가	-5671
▁대사	-5672
▁대장	-5673
▁똑같	-5674
▁밀어	-5675
▁시키	-5676
▁악몽	-5677
▁안됐	-5678
▁여깄	-5679
▁입은	-5680
▁착륙	-5681
▁찾지	-5682
▁피부	-5683
원에서	-5684
▁계시를	-5685
▁지켜보	-5686
▁상관없어	-5687
▁싶었어요	-5688
▁필요합니다	-5689
개가	-5690
igh	-5691
▁경기	-5692
▁계셨	-5693
▁깨달	-5694
▁사촌	-5695
▁수녀	-5696
▁연주	-5697
▁저질	-5698
▁고맙다	-5699
▁만들었	-5700
▁못했어	-5701
▁믿어요	-5702
▁아기가	-5703
▁전화해	-5704
▁notice	-5705
무리	-5706
성은	-5707
iss	-5708
▁시계	-5709
▁양식	-5710
▁조정	-5711
▁좋게	-5712
▁지배	-5713
▁틀림	-5714
▁관심이	-5715
▁무기를	-5716
▁없나요	-5717
▁예전에	-5718
▁있겠죠	-5719
▁있어도	-5720
▁죽으면	-5721
▁great	-5722
▁behaviour	-5723
▁뱀	-5724
▁습	-5725
료를	-5726
자인	-5727
▁죽기	-5728
▁해치	-5729
abel	-5730
▁싶어서	-5731
▁싶은데	-5732
▁최근에	-5733
▁파블로	-5734
▁화장실	-5735
QL	-5736
애틀	-5737
▁Re	-5738
▁거만	-5739
▁서서	-5740
▁유전	-5741
▁부인이	-5742
▁사실이	-5743
▁일부를	-5744
▁전에는	-5745
▁지옥의	-5746
▁힘들어	-5747
▁risk	-5748
AN	-5749
받고	-5750
스와	-5751
층에	-5752
▁느꼈	-5753
▁앤디	-5754
▁욕망	-5755
▁주면	-5756
▁중독	-5757
▁치워	-5758
하기로	-5759
fter	-5760
▁sec	-5761
▁갔어요	-5762
▁말하라	-5763
▁아심과	-5764
▁애들은	-5765
▁이해할	-5766
▁자네도	-5767
▁선생님은	-5768
▁하더라도	-5769
▁using	-5770
▁character	-5771
▁information	-5772
we	-5773
▁래	-5774
▁앙	-5775
▁잉	-5776
▁쪼	-5777
마일	-5778
스토	-5779
였던	-5780
잖소	-5781
ade	-5782
▁EX	-5783
▁HT	-5784
▁따로	-5785
▁물고	-5786
▁실은	-5787
▁않죠	-5788
▁좋네	-5789
▁창문	-5790
▁캠프	-5791
하고자	-5792
▁Why	-5793
▁대화를	-5794
▁머리가	-5795
▁저렇게	-5796
▁inst	-5797
▁release	-5798
▁닦	-5799
드에	-5800
eop	-5801
▁거냐	-5802
▁교육	-5803
▁망가	-5804
▁예약	-5805
▁의학	-5806
▁자넬	-5807
▁적도	-5808
▁최대	-5809
▁허용	-5810
▁그리곤	-5811
▁두번째	-5812
▁사랑에	-5813
▁얘기할	-5814
▁가능성이	-5815
▁무슨일이	-5816
▁중이에요	-5817
▁these	-5818
▁거역하겠느뇨	-5819
▁탭	-5820
▁fl	-5821
▁공동	-5822
▁문이	-5823
▁봉합	-5824
▁빌려	-5825
▁없소	-5826
▁즉시	-5827
▁캐롤	-5828
▁ass	-5829
▁무거운	-5830
▁보여줄	-5831
▁좋은데	-5832
▁하는게	-5833
▁하리니	-5834
시겠어요	-5835
▁long	-5836
산을	-5837
안녕	-5838
질이	-5839
ble	-5840
▁거란	-5841
▁두지	-5842
▁배웠	-5843
▁어릴	-5844
▁임마	-5845
▁종료	-5846
▁창녀	-5847
▁테이	-5848
▁형사	-5849
꺼에요	-5850
는지도	-5851
▁고맙네	-5852
▁관리자	-5853
▁돌아온	-5854
▁되나니	-5855
▁되니라	-5856
▁되잖아	-5857
▁모든걸	-5858
▁뭐든지	-5859
▁보자고	-5860
▁지금부터	-5861
km	-5862
▁뚱	-5863
크가	-5864
트의	-5865
▁늦게	-5866
▁들게	-5867
▁알기	-5868
▁절반	-5869
한테서	-5870
▁dis	-5871
▁갑시다	-5872
▁거니까	-5873
▁많아요	-5874
▁뭔가가	-5875
▁아니하	-5876
▁아줌마	-5877
▁영향을	-5878
▁해야할	-5879
lp	-5880
두지	-5881
말야	-5882
이여	-5883
ove	-5884
▁둘다	-5885
▁몰아	-5886
ting	-5887
▁add	-5888
▁미디어	-5889
▁어리석	-5890
▁저들이	-5891
▁주어진	-5892
▁플러그	-5893
▁루시어스	-5894
▁마음속에	-5895
▁랜	-5896
▁핀	-5897
과는	-5898
성에	-5899
책을	-5900
ute	-5901
▁돼서	-5902
▁안식	-5903
▁짐승	-5904
에게서	-5905
▁없이는	-5906
▁지혜를	-5907
▁하늘에	-5908
▁last	-5909
▁follow	-5910
해진	-5911
▁건드	-5912
▁관찰	-5913
▁다야	-5914
▁따랐	-5915
▁바빠	-5916
▁않나	-5917
▁우울	-5918
▁잠을	-5919
▁침입	-5920
▁트레	-5921
그리고	-5922
자들과	-5923
▁ind	-5924
▁마침내	-5925
▁안녕히	-5926
▁일이라	-5927
▁하나를	-5928
▁한거야	-5929
▁핸드폰	-5930
▁죄송하지만	-5931
▁롯	-5932
볼까	-5933
히고	-5934
col	-5935
▁개발	-5936
▁군인	-5937
▁내놔	-5938
▁내부	-5939
▁마주	-5940
▁안보	-5941
▁의료	-5942
텐데요	-5943
▁거대한	-5944
▁보여줘	-5945
▁있을지	-5946
eople	-5947
▁condition	-5948
▁띄	-5949
▁펠	-5950
군이	-5951
더러	-5952
스테	-5953
하심	-5954
▁가봐	-5955
▁경쟁	-5956
▁병신	-5957
▁비교	-5958
▁오스	-5959
▁오줌	-5960
▁저쪽	-5961
▁접속	-5962
▁말해줄	-5963
▁어째서	-5964
▁좋아하	-5965
▁하늘을	-5966
▁girl	-5967
▁사람들과	-5968
▁아니하니	-5969
▁여보세요	-5970
▁direct	-5971
SL	-5972
pr	-5973
▁쌓	-5974
보죠	-5975
▁땅을	-5976
▁버튼	-5977
▁복종	-5978
▁불어	-5979
▁씨가	-5980
▁에너	-5981
▁차려	-5982
갔어요	-5983
▁받았어	-5984
▁시작해	-5985
▁영원한	-5986
▁정도는	-5987
▁하고자	-5988
▁much	-5989
▁말했어요	-5990
▁살아있는	-5991
▁again	-5992
▁선지자들이	-5993
▁닭	-5994
▁폰	-5995
내지	-5996
엄마	-5997
▁마누	-5998
▁마르	-5999
▁번도	-6000
▁않지	-6001
▁저항	-6002
▁중지	-6003
▁출력	-6004
볼게요	-6005
적이야	-6006
self	-6007
▁때부터	-6008
▁이르지	-6009
▁이해해	-6010
▁전쟁을	-6011
▁찾아서	-6012
▁When	-6013
▁하루종일	-6014
coding	-6015
▁롤	-6016
네가	-6017
라를	-6018
수술	-6019
위가	-6020
▁고양	-6021
▁나빠	-6022
▁대표	-6023
▁블로	-6024
▁세션	-6025
▁외계	-6026
▁외과	-6027
▁의원	-6028
▁종일	-6029
▁트랙	-6030
▁데려오	-6031
▁아직은	-6032
▁응벌을	-6033
▁전에도	-6034
▁최후의	-6035
▁Come	-6036
▁아심으로	-6037
▁label	-6038
▁찔	-6039
▁칭	-6040
▁탁	-6041
사한	-6042
해를	-6043
ize	-6044
▁1'	-6045
▁1,	-6046
▁글꼴	-6047
▁없나	-6048
▁이메	-6049
NTAL	-6050
▁간단한	-6051
▁마시고	-6052
▁오만한	-6053
▁왔는데	-6054
▁일하고	-6055
▁친구야	-6056
▁토레스	-6057
▁확실한	-6058
▁그분에게	-6059
▁들어가서	-6060
▁저희에게	-6061
▁처음부터	-6062
PERIME	-6063
▁EXPERIME	-6064
▁specified	-6065
▁EXPERIMENTAL	-6066
nc	-6067
▁힐	-6068
는가	-6069
씨는	-6070
▁CT	-6071
▁걔는	-6072
▁공개	-6073
▁군대	-6074
▁숙고	-6075
▁작품	-6076
▁적용	-6077
줬으면	-6078
arch	-6079
▁다리를	-6080
▁된다면	-6081
▁마음은	-6082
▁사건을	-6083
▁숨기는	-6084
▁사용하는	-6085
▁아니었어요	-6086
끄럽	-6087
도에	-6088
들고	-6089
로워	-6090
받았	-6091
아지	-6092
▁To	-6093
▁고려	-6094
▁날에	-6095
▁얼음	-6096
▁장담	-6097
▁줄은	-6098
시니라	-6099
▁Not	-6100
▁데이비	-6101
▁복음을	-6102
▁수술실	-6103
▁시애틀	-6104
▁오케이	-6105
▁진리로	-6106
▁행동을	-6107
▁생각했어	-6108
▁있는데요	-6109
▁있으소서	-6110
▁쏜	-6111
가서	-6112
어져	-6113
red	-6114
▁가치	-6115
▁갈라	-6116
▁깨닫	-6117
▁나눠	-6118
▁배열	-6119
▁샤워	-6120
▁수색	-6121
▁오기	-6122
▁중의	-6123
▁통신	-6124
▁생각도	-6125
▁아시는	-6126
▁어렸을	-6127
▁이러는	-6128
▁차라리	-6129
▁comm	-6130
브를	-6131
정은	-6132
피아	-6133
▁00	-6134
▁돈은	-6135
▁뒤집	-6136
▁보살	-6137
▁연방	-6138
▁연설	-6139
▁영마	-6140
▁장면	-6141
트에서	-6142
▁fee	-6143
▁가끔은	-6144
▁교훈을	-6145
▁수술은	-6146
▁이르되	-6147
▁고등학교	-6148
▁메시지를	-6149
▁환영합니다	-6150
실한	-6151
▁dr	-6152
▁공유	-6153
▁메일	-6154
▁번역	-6155
▁수상	-6156
▁이론	-6157
▁읽을	-6158
▁찍어	-6159
▁폭력	-6160
▁형이	-6161
들이야	-6162
body	-6163
▁try	-6164
▁가자고	-6165
▁관련된	-6166
▁모르죠	-6167
▁보내고	-6168
▁아는데	-6169
▁친구는	-6170
▁even	-6171
▁하였으며	-6172
▁check	-6173
▁always	-6174
ellation	-6175
▁왓	-6176
▁험	-6177
▁흡	-6178
던지	-6179
▁공평	-6180
▁끌고	-6181
▁노출	-6182
▁매력	-6183
▁명의	-6184
▁복수	-6185
▁편안	-6186
▁한데	-6187
갑니다	-6188
만으로	-6189
▁능력이	-6190
▁도시를	-6191
▁되겠지	-6192
▁상처를	-6193
▁일부는	-6194
▁하노라	-6195
해주세요	-6196
▁거짓하는	-6197
▁누구이뇨	-6198
onstellation	-6199
▁캣	-6200
니는	-6201
서에	-6202
▁드래	-6203
▁따를	-6204
▁멈출	-6205
▁스위	-6206
▁이탈	-6207
▁투자	-6208
▁해킹	-6209
▁att	-6210
▁뭐라도	-6211
▁빠르게	-6212
▁셰퍼드	-6213
▁손으로	-6214
▁이걸로	-6215
▁자동차	-6216
▁잘못이	-6217
▁font	-6218
▁pass	-6219
▁text	-6220
▁감사해요	-6221
▁받으리라	-6222
▁전지전능	-6223
▁stream	-6224
란시	-6225
만은	-6226
여서	-6227
air	-6228
▁나간	-6229
▁놀랐	-6230
▁수준	-6231
▁존중	-6232
▁형편	-6233
▁환경	-6234
셨나요	-6235
▁bel	-6236
▁같으니	-6237
▁기록을	-6238
▁된다는	-6239
▁만들지	-6240
▁아무튼	-6241
▁몰랐어요	-6242
▁뿐입니다	-6243
▁아무래도	-6244
일까	-6245
전이	-6246
▁기념	-6247
▁소설	-6248
▁암흑	-6249
▁잭슨	-6250
▁중이	-6251
▁하킴	-6252
ault	-6253
▁Let	-6254
▁말씀드	-6255
▁멕시코	-6256
▁스크립	-6257
▁아이콘	-6258
▁어느날	-6259
▁있고요	-6260
▁정신이	-6261
▁일어나는	-6262
고한	-6263
비는	-6264
val	-6265
▁gi	-6266
▁갇혀	-6267
▁나을	-6268
▁바래	-6269
▁사기	-6270
▁살게	-6271
▁원숭	-6272
▁유럽	-6273
▁차량	-6274
보다는	-6275
함으로	-6276
▁놀라운	-6277
▁누구나	-6278
▁도망가	-6279
▁이러한	-6280
▁죄악을	-6281
됐습니다	-6282
ocket	-6283
▁TRUE	-6284
이었습니다	-6285
▁뵙	-6286
고에	-6287
인간	-6288
일에	-6289
프트	-6290
▁아메	-6291
▁확보	-6292
하였고	-6293
할까요	-6294
▁결과가	-6295
▁말로는	-6296
▁싶다면	-6297
▁클라라	-6298
▁conf	-6299
▁대다수는	-6300
▁콩	-6301
리기	-6302
받지	-6303
싱턴	-6304
이든	-6305
적은	-6306
▁co	-6307
▁교도	-6308
▁동맥	-6309
▁라그	-6310
▁레드	-6311
▁맞을	-6312
▁모드	-6313
▁미워	-6314
▁비가	-6315
▁얘가	-6316
▁여섯	-6317
▁이행	-6318
▁제목	-6319
▁중심	-6320
▁코드	-6321
▁하진	-6322
▁검사를	-6323
▁괜찮지	-6324
▁조금도	-6325
▁책임이	-6326
▁테이블	-6327
▁활성화	-6328
이었는데	-6329
aking	-6330
▁누군가를	-6331
▁sorry	-6332
▁under	-6333
▁before	-6334
▁선택하십시오	-6335
니를	-6336
와의	-6337
위로	-6338
▁고생	-6339
▁그레	-6340
▁망각	-6341
▁보죠	-6342
▁불이	-6343
▁빠른	-6344
▁삶은	-6345
▁스캔	-6346
▁암살	-6347
▁지속	-6348
일지도	-6349
oney	-6350
▁가치가	-6351
▁모두는	-6352
하잖아요	-6353
ource	-6354
▁그것들을	-6355
▁당연하죠	-6356
▁알잖아요	-6357
▁컸	-6358
나도	-6359
되며	-6360
인트	-6361
치면	-6362
치의	-6363
BAR	-6364
▁구름	-6365
▁꼼짝	-6366
▁놈의	-6367
▁방사	-6368
▁아랍	-6369
▁윌리	-6370
▁제어	-6371
▁중단	-6372
▁테마	-6373
▁프린	-6374
버렸어	-6375
하시며	-6376
▁rec	-6377
▁나타났	-6378
▁내려놔	-6379
▁노래를	-6380
▁이것도	-6381
▁이유로	-6382
▁잘하고	-6383
▁평범한	-6384
▁play	-6385
▁생각해봐	-6386
▁둔	-6387
▁혁	-6388
돼요	-6389
▁거울	-6390
▁보아	-6391
▁브루	-6392
▁비록	-6393
▁성장	-6394
▁세우	-6395
▁싶을	-6396
▁유명	-6397
▁잠들	-6398
▁주민	-6399
▁틀렸	-6400
▁해라	-6401
▁호흡	-6402
▁만나는	-6403
▁아이구	-6404
▁약속이	-6405
▁해악을	-6406
▁말하자면	-6407
mm	-6408
부로	-6409
생각	-6410
약한	-6411
원회	-6412
nce	-6413
▁겁먹	-6414
▁나요	-6415
▁다녔	-6416
▁돕고	-6417
▁머릿	-6418
▁술을	-6419
하시오	-6420
▁나보다	-6421
▁미쳤어	-6422
▁호스트	-6423
▁모세에게	-6424
▁사용하기	-6425
▁여러분이	-6426
▁still	-6427
IA	-6428
ST	-6429
ub	-6430
나이	-6431
라마	-6432
브리	-6433
.0)	-6434
▁가격	-6435
▁발전	-6436
▁생겨	-6437
▁압박	-6438
▁열매	-6439
▁전송	-6440
▁중앙	-6441
하자고	-6442
▁그날을	-6443
▁누구죠	-6444
▁더러운	-6445
▁마무리	-6446
▁앨리슨	-6447
▁이렇듯	-6448
▁하시고	-6449
▁version	-6450
),	-6451
la	-6452
▁쏟	-6453
▁졌	-6454
복을	-6455
선이	-6456
스런	-6457
자나	-6458
▁가리	-6459
▁그땐	-6460
▁온다	-6461
▁전자	-6462
들이랑	-6463
하구나	-6464
ates	-6465
ines	-6466
▁God	-6467
▁깨어나	-6468
▁끝나면	-6469
▁다르게	-6470
▁보내는	-6471
▁아니란	-6472
▁않으시	-6473
▁find	-6474
하시겠습니까	-6475
놓은	-6476
랬어	-6477
웨이	-6478
음이	-6479
자라	-6480
크를	-6481
ful	-6482
▁구성	-6483
▁놀아	-6484
▁됐죠	-6485
▁되나	-6486
▁시기	-6487
▁양반	-6488
▁최초	-6489
▁파리	-6490
▁URL	-6491
▁그날은	-6492
▁끝까지	-6493
▁없었던	-6494
▁자들로	-6495
▁mess	-6496
▁그렇겠지	-6497
▁꿇	-6498
수로	-6499
어느	-6500
하오	-6501
화를	-6502
▁남녀	-6503
▁모래	-6504
▁부드	-6505
▁오라	-6506
▁은총	-6507
▁일정	-6508
▁전통	-6509
▁조카	-6510
▁줄리	-6511
말이야	-6512
▁내세의	-6513
▁보라고	-6514
▁않을까	-6515
▁어서요	-6516
▁Quot	-6517
▁대부분의	-6518
▁사람한테	-6519
▁might	-6520
▁생각합니다	-6521
▁듀	-6522
사건	-6523
시길	-6524
ING	-6525
▁갖지	-6526
▁공경	-6527
▁안심	-6528
▁트리	-6529
▁판결	-6530
▁확장	-6531
하시면	-6532
etch	-6533
▁end	-6534
▁mon	-6535
▁남편은	-6536
▁만나고	-6537
▁없었다	-6538
▁학교에	-6539
▁무엇인지	-6540
▁불신하는	-6541
▁주십시오	-6542
▁탑	-6543
불어	-6544
아이	-6545
인도	-6546
준다	-6547
ars	-6548
▁90	-6549
▁눈치	-6550
▁맞다	-6551
▁쉽지	-6552
▁안다	-6553
▁저놈	-6554
▁줘야	-6555
▁한명	-6556
었는지	-6557
cast	-6558
ower	-6559
▁Now	-6560
▁php	-6561
▁그러한	-6562
▁말인지	-6563
▁미래를	-6564
▁움직일	-6565
▁이후에	-6566
▁카레프	-6567
▁창조하신	-6568
20	-6569
ov	-6570
▁론	-6571
마자	-6572
조각	-6573
한단	-6574
umn	-6575
▁강이	-6576
▁고작	-6577
▁뭐냐	-6578
▁생길	-6579
▁스탠	-6580
▁얻어	-6581
님께서	-6582
원으로	-6583
hing	-6584
▁act	-6585
▁나가요	-6586
▁나님의	-6587
▁모르겠	-6588
▁즐거운	-6589
▁하니라	-6590
▁한가지	-6591
▁천국으로	-6592
▁exten	-6593
▁도와주세요	-6594
방을	-6595
▁45	-6596
▁갈래	-6597
▁당황	-6598
▁신도	-6599
▁안아	-6600
▁웃기	-6601
▁웨버	-6602
▁향락	-6603
속으로	-6604
자들의	-6605
▁clo	-6606
▁거두어	-6607
▁더불어	-6608
▁뒤에서	-6609
▁똑같이	-6610
▁말하나	-6611
▁사무실	-6612
▁테이프	-6613
ought	-6614
▁아니라는	-6615
▁어머니가	-6616
ev	-6617
▁넷	-6618
라우	-6619
히지	-6620
▁개를	-6621
▁다를	-6622
▁마녀	-6623
▁발작	-6624
▁장애	-6625
▁전사	-6626
▁key	-6627
▁run	-6628
▁녀석이	-6629
▁되나요	-6630
▁워싱턴	-6631
▁주머니	-6632
▁못하노라	-6633
▁사람들도	-6634
▁하셨노라	-6635
60	-6636
▁탔	-6637
러가	-6638
스턴	-6639
▁같았	-6640
▁말에	-6641
▁보석	-6642
▁볼까	-6643
▁봐도	-6644
▁일종	-6645
▁포르	-6646
▁행성	-6647
▁swf	-6648
▁개새끼	-6649
▁관심을	-6650
▁떠나지	-6651
▁비슷한	-6652
▁시체를	-6653
▁있음을	-6654
▁전문가	-6655
▁하는거	-6656
▁한마디	-6657
▁head	-6658
▁계심이라	-6659
▁미안하다	-6660
▁제외하고는	-6661
▁extension	-6662
▁냈	-6663
걸로	-6664
시요	-6665
▁그애	-6666
▁빠졌	-6667
▁안타	-6668
▁예뻐	-6669
▁오버	-6670
▁펼쳐	-6671
▁행크	-6672
▁협조	-6673
가운데	-6674
었지만	-6675
하군요	-6676
▁심중에	-6677
▁재산과	-6678
▁차에서	-6679
▁찾아내	-6680
▁효과가	-6681
▁말씀으로	-6682
린이	-6683
수한	-6684
▁공항	-6685
▁나만	-6686
▁날을	-6687
▁맞추	-6688
▁보험	-6689
▁산소	-6690
▁스캇	-6691
▁오해	-6692
▁증가	-6693
▁차지	-6694
▁찬양	-6695
read	-6696
▁wat	-6697
▁데이브	-6698
▁똑바로	-6699
▁사건이	-6700
▁사라져	-6701
▁안드레	-6702
▁않나요	-6703
riend	-6704
▁help	-6705
▁requ	-6706
▁하였더라	-6707
▁trans	-6708
▁world	-6709
▁because	-6710
▁곰	-6711
▁닿	-6712
▁섞	-6713
▁23	-6714
▁모아	-6715
▁바깥	-6716
▁바치	-6717
▁사령	-6718
▁사막	-6719
▁시절	-6720
▁앨범	-6721
▁제길	-6722
▁제정	-6723
하다면	-6724
▁영광이	-6725
▁일들을	-6726
▁제이크	-6727
▁주인이	-6728
▁중어느	-6729
▁축하해	-6730
▁okay	-6731
▁백성들은	-6732
▁있다고요	-6733
▁given	-6734
▁forecast	-6735
▁켈	-6736
처를	-6737
▁Uh	-6738
▁개가	-6739
▁경로	-6740
▁국민	-6741
▁깜짝	-6742
▁명백	-6743
▁발을	-6744
▁부딪	-6745
▁부른	-6746
▁예술	-6747
▁으니	-6748
▁있긴	-6749
▁집안	-6750
▁토미	-6751
▁형님	-6752
다는걸	-6753
▁귀여운	-6754
▁나가야	-6755
▁다음은	-6756
▁무리는	-6757
▁서비스	-6758
▁시끄러	-6759
▁알아보	-6760
▁어떤지	-6761
▁행복해	-6762
▁휴대폰	-6763
▁내세에서	-6764
▁아빠한테	-6765
▁어젯밤에	-6766
▁doing	-6767
▁happen	-6768
▁균	-6769
▁쏠	-6770
국이	-6771
인들	-6772
ott	-6773
▁2.	-6774
▁감당	-6775
▁기독	-6776
▁단단	-6777
▁당시	-6778
▁될지	-6779
▁병사	-6780
▁싫은	-6781
▁알면	-6782
▁앞서	-6783
▁왓슨	-6784
▁운명	-6785
▁지붕	-6786
▁침착	-6787
▁하러	-6788
▁형태	-6789
▁확률	-6790
▁cal	-6791
▁로부터	-6792
▁솔로몬	-6793
▁유명한	-6794
▁의견을	-6795
▁좋아할	-6796
▁통해서	-6797
▁브라이언	-6798
▁state	-6799
▁생각했어요	-6800
▁people	-6801
▁왠	-6802
간의	-6803
세계	-6804
어라	-6805
ike	-6806
▁그린	-6807
▁들으	-6808
▁배경	-6809
▁일할	-6810
▁했나	-6811
▁화학	-6812
느니라	-6813
요일에	-6814
하게도	-6815
▁그리워	-6816
▁동시에	-6817
▁백성이	-6818
▁부활의	-6819
▁이상해	-6820
▁일들이	-6821
▁좋겠다	-6822
▁행위를	-6823
▁Your	-6824
▁경배하라	-6825
▁그만해요	-6826
▁대답하길	-6827
▁드릴게요	-6828
▁만들었어	-6829
▁른	-6830
로스	-6831
말라	-6832
비에	-6833
uss	-6834
▁들러	-6835
▁라는	-6836
▁상자	-6837
▁없게	-6838
▁전환	-6839
▁주목	-6840
▁지킬	-6841
▁투여	-6842
▁헌트	-6843
이시니	-6844
하지마	-6845
▁per	-6846
▁갑니다	-6847
▁강력한	-6848
▁그랬죠	-6849
▁떨어졌	-6850
▁말이오	-6851
▁바닥에	-6852
▁범인이	-6853
▁베푸는	-6854
▁생각한	-6855
▁어디있	-6856
▁재밌는	-6857
▁뭐라구요	-6858
▁불지옥의	-6859
▁싫어하는	-6860
▁엠파이어	-6861
▁사람이에요	-6862
cH	-6863
단에	-6864
점은	-6865
함과	-6866
형을	-6867
▁(*	-6868
▁기꺼	-6869
▁다스	-6870
▁셔츠	-6871
▁슬픈	-6872
▁압축	-6873
▁왕자	-6874
▁의지	-6875
▁있군	-6876
▁정지	-6877
▁그들도	-6878
▁그림을	-6879
▁그만둬	-6880
▁따라서	-6881
▁라디오	-6882
▁블랙홀	-6883
▁싸우는	-6884
▁어디야	-6885
▁에스코	-6886
▁임무를	-6887
▁지나가	-6888
▁충분한	-6889
▁치료를	-6890
▁태어나	-6891
▁모릅니다	-6892
▁받았어요	-6893
▁하늘에서	-6894
▁딕	-6895
디가	-6896
바이	-6897
▁갈아	-6898
▁감히	-6899
▁내겐	-6900
▁루이	-6901
▁매번	-6902
▁방어	-6903
▁사인	-6904
▁스노	-6905
▁않네	-6906
▁얘는	-6907
▁하길	-6908
거리는	-6909
하거든	-6910
▁놈들은	-6911
▁들어올	-6912
▁보리라	-6913
▁준비를	-6914
▁진리의	-6915
▁sure	-6916
▁드릴까요	-6917
▁얘기하는	-6918
▁낯	-6919
관에	-6920
국의	-6921
기야	-6922
중의	-6923
쳐서	-6924
▁갔을	-6925
▁긴급	-6926
▁맡을	-6927
▁매달	-6928
▁악당	-6929
▁줄까	-6930
▁계시는	-6931
▁기독교	-6932
▁내말은	-6933
▁아내와	-6934
▁여기선	-6935
▁이미지	-6936
▁해줘요	-6937
▁조심해요	-6938
▁준비됐어	-6939
▁their	-6940
▁returned	-6941
▁웅	-6942
▁켄	-6943
그럼	-6944
때는	-6945
지않	-6946
ttp	-6947
▁ID	-6948
▁달을	-6949
▁업무	-6950
▁올해	-6951
▁외상	-6952
▁잃을	-6953
▁케빈	-6954
던가요	-6955
▁구하는	-6956
▁다니엘	-6957
▁저들은	-6958
▁종교를	-6959
▁환자의	-6960
▁Name	-6961
▁거잖아요	-6962
▁언제부터	-6963
▁없으니까	-6964
▁생각했는데	-6965
▁낚	-6966
거니	-6967
단이	-6968
돌아	-6969
드라	-6970
이냐	-6971
했기	-6972
▁부상	-6973
▁어깨	-6974
▁저것	-6975
▁전기	-6976
▁충고	-6977
▁친한	-6978
하기도	-6979
angu	-6980
▁why	-6981
▁거라는	-6982
▁게임을	-6983
▁계시며	-6984
▁나가는	-6985
▁물으니	-6986
▁싸우고	-6987
▁안그래	-6988
▁일부러	-6989
▁제기랄	-6990
▁증거를	-6991
▁파티에	-6992
▁http	-6993
▁keep	-6994
▁well	-6995
하였습니다	-6996
▁빗	-6997
님께	-6998
려던	-6999
슬림	-7000
해졌	-7001
rey	-7002
sql	-7003
▁De	-7004
▁Ph	-7005
▁걸세	-7006
▁그려	-7007
▁드레	-7008
▁비상	-7009
▁상사	-7010
▁수천	-7011
▁영주	-7012
▁위반	-7013
▁위조	-7014
▁쟤가	-7015
▁전설	-7016
▁지는	-7017
어가고	-7018
▁기다렸	-7019
▁모른다	-7020
▁물어볼	-7021
▁상관없	-7022
▁선물을	-7023
▁세상은	-7024
▁온라인	-7025
▁있단다	-7026
드릴까요	-7027
ative	-7028
▁very	-7029
▁마십시오	-7030
▁있었다고	-7031
▁진심이야	-7032
▁support	-7033
▁끈	-7034
▁린	-7035
▁윗	-7036
다란	-7037
였을	-7038
▁DV	-7039
▁{\	-7040
▁구제	-7041
▁너야	-7042
▁데리	-7043
▁묻는	-7044
▁바비	-7045
▁수사	-7046
▁약물	-7047
▁옳지	-7048
년동안	-7049
보다도	-7050
시키지	-7051
▁put	-7052
▁간다고	-7053
▁말했다	-7054
▁멍청이	-7055
▁원해요	-7056
▁윌리엄	-7057
▁의미가	-7058
이잖아요	-7059
▁못하니라	-7060
▁정말이야	-7061
!"	-7062
',	-7063
▁뭉	-7064
님과	-7065
줄까	-7066
치기	-7067
행을	-7068
▁21	-7069
▁머무	-7070
▁믿기	-7071
▁부부	-7072
▁상징	-7073
▁에밀	-7074
▁이른	-7075
▁판매	-7076
리라고	-7077
었더라	-7078
적이지	-7079
akes	-7080
list	-7081
▁다음엔	-7082
▁세상의	-7083
▁아래에	-7084
▁헛소리	-7085
하셨노라	-7086
▁vari	-7087
▁count	-7088
to	-7089
▁뭣	-7090
▁빙	-7091
▁쇠	-7092
▁팝	-7093
구가	-7094
대지	-7095
디스	-7096
병을	-7097
▁80	-7098
▁Sc	-7099
▁같을	-7100
▁바꿨	-7101
▁빛이	-7102
▁에스	-7103
▁이집	-7104
▁플래	-7105
에서요	-7106
▁거래를	-7107
▁그러게	-7108
▁그만두	-7109
▁데려갈	-7110
▁돌아서	-7111
▁똑똑한	-7112
▁맘대로	-7113
▁생겼어	-7114
▁전까진	-7115
▁Look	-7116
▁wait	-7117
▁class	-7118
▁image	-7119
▁encoding	-7120
▁핑	-7121
되기	-7122
짓을	-7123
ins	-7124
ual	-7125
▁기름	-7126
▁녹음	-7127
▁산산	-7128
▁손상	-7129
▁왔지	-7130
▁지갑	-7131
▁향해	-7132
합니까	-7133
▁결혼할	-7134
▁있다가	-7135
▁자격이	-7136
▁자세히	-7137
▁그런데도	-7138
▁누구에게	-7139
▁아닌가요	-7140
▁엄청나게	-7141
▁전화해서	-7142
▁지옥으로	-7143
▁타오르는	-7144
▁마찬가지야	-7145
▁쯤	-7146
▁촉	-7147
랑은	-7148
에만	-7149
오를	-7150
지금	-7151
▁귀찮	-7152
▁무척	-7153
▁불공	-7154
▁절망	-7155
▁채워	-7156
▁초기	-7157
▁추천	-7158
하겠지	-7159
합시다	-7160
했으면	-7161
▁것들은	-7162
▁군대를	-7163
▁권리가	-7164
▁그녀와	-7165
▁기꺼이	-7166
▁기억을	-7167
▁너희로	-7168
▁스타크	-7169
▁않아서	-7170
▁했다면	-7171
▁돌아가는	-7172
▁방법으로	-7173
▁그분께서는	-7174
tr	-7175
줬지	-7176
해져	-7177
후에	-7178
▁고소	-7179
▁깜빡	-7180
▁뉴스	-7181
▁두번	-7182
▁말게	-7183
▁무례	-7184
▁삶의	-7185
▁알라	-7186
▁이삭	-7187
▁잃고	-7188
▁지우	-7189
▁차단	-7190
▁해리	-7191
이거늘	-7192
ache	-7193
▁가져온	-7194
▁결혼을	-7195
▁따라오	-7196
▁일인지	-7197
▁정보가	-7198
▁천지를	-7199
▁파티를	-7200
▁same	-7201
▁끝났어요	-7202
▁됐습니다	-7203
▁때문이죠	-7204
▁딘	-7205
론을	-7206
▁꽤나	-7207
▁뭐해	-7208
▁번만	-7209
▁불리	-7210
▁스토	-7211
▁이겼	-7212
▁인상	-7213
▁저흰	-7214
▁추구	-7215
▁털어	-7216
▁해본	-7217
보라고	-7218
지에서	-7219
ible	-7220
▁New	-7221
▁pdf	-7222
▁그보다	-7223
▁뭔데요	-7224
▁방에서	-7225
▁뿐이지	-7226
▁시니라	-7227
▁싶다고	-7228
▁약간의	-7229
▁엘리엇	-7230
▁의심할	-7231
▁있으되	-7232
▁저질렀	-7233
▁트레이	-7234
▁year	-7235
▁누구한테	-7236
▁방황하는	-7237
▁선지자에게	-7238
▁하나님께로	-7239
▁램	-7240
사항	-7241
장의	-7242
▁2,	-7243
▁Un	-7244
▁la	-7245
▁고문	-7246
▁더그	-7247
▁돈도	-7248
▁리고	-7249
▁맞서	-7250
▁맨날	-7251
▁미사	-7252
▁아예	-7253
▁않음	-7254
▁열기	-7255
▁잡혀	-7256
▁장례	-7257
▁좀더	-7258
▁지냈	-7259
▁징벌	-7260
▁춤추	-7261
▁관계를	-7262
▁기쁘게	-7263
▁뭐에요	-7264
▁어두운	-7265
▁죄악이	-7266
▁증거가	-7267
▁처음엔	-7268
하나이다	-7269
aCity	-7270
color	-7271
▁그것들이	-7272
▁학교에서	-7273
Constellation	-7274
LE	-7275
no	-7276
▁칸	-7277
서도	-7278
프로	-7279
▁ro	-7280
▁yö	-7281
▁가혹	-7282
▁걸까	-7283
▁교통	-7284
▁낮을	-7285
▁더럽	-7286
▁별거	-7287
▁부유	-7288
▁소문	-7289
▁않다	-7290
▁언어	-7291
▁잔인	-7292
▁좋죠	-7293
▁필터	-7294
▁함수	-7295
▁허가	-7296
다니는	-7297
들이라	-7298
▁단추를	-7299
▁드래곤	-7300
▁뜻이야	-7301
▁말인데	-7302
▁맞았어	-7303
▁보고싶	-7304
▁설명해	-7305
▁아이의	-7306
▁엄마도	-7307
▁인생이	-7308
하였으며	-7309
▁Some	-7310
▁때문이지	-7311
▁못했어요	-7312
▁보상이라	-7313
▁하셨으니	-7314
▁현세에서	-7315
▁뒀	-7316
▁헐	-7317
격을	-7318
▁마일	-7319
▁선거	-7320
▁시켰	-7321
▁앗아	-7322
▁임시	-7323
▁채로	-7324
▁투표	-7325
▁팔아	-7326
▁흑인	-7327
되었다	-7328
방에서	-7329
으로서	-7330
하겠어	-7331
▁그사람	-7332
▁대해선	-7333
▁바람을	-7334
▁부르지	-7335
▁사탄의	-7336
▁여지가	-7337
▁잘됐네	-7338
▁said	-7339
▁맞습니다	-7340
▁선지자가	-7341
▁아이디어	-7342
▁죽이려고	-7343
시겠습니까	-7344
▁하늘로부터	-7345
TP	-7346
레인	-7347
ons	-7348
▁견딜	-7349
▁기원	-7350
▁남을	-7351
▁대피	-7352
▁동일	-7353
▁되기	-7354
▁빌리	-7355
▁시설	-7356
▁싸워	-7357
▁얼간	-7358
▁연관	-7359
▁원한	-7360
▁인식	-7361
▁중인	-7362
▁되돌려	-7363
▁라이온	-7364
▁만들기	-7365
▁맛보게	-7366
▁무슬림	-7367
▁부분을	-7368
▁아이들	-7369
▁이러면	-7370
▁후에도	-7371
▁Just	-7372
▁user	-7373
▁들어가는	-7374
▁말하리라	-7375
▁모르겠네	-7376
▁보이는데	-7377
▁양식으로	-7378
▁어머니는	-7379
▁에스코바	-7380
▁이슬람세를	-7381
▁output	-7382
50	-7383
▁됬	-7384
▁섭	-7385
나의	-7386
보이	-7387
시며	-7388
여야	-7389
rib	-7390
▁Fr	-7391
▁모욕	-7392
▁음료	-7393
▁주무	-7394
▁지시	-7395
▁퇴원	-7396
▁한참	-7397
▁홍콩	-7398
▁훔쳤	-7399
▁관계가	-7400
▁누구지	-7401
▁만나러	-7402
▁말해요	-7403
▁말했지	-7404
▁사라진	-7405
▁스페인	-7406
▁여자랑	-7407
▁life	-7408
▁죄악으로	-7409
▁행복하게	-7410
▁하겠습니다	-7411
PO	-7412
▁묵	-7413
▁짝	-7414
도의	-7415
랐어	-7416
물은	-7417
범이	-7418
프를	-7419
▁Mr	-7420
▁네놈	-7421
▁대접	-7422
▁데니	-7423
▁맛있	-7424
▁명심	-7425
▁소령	-7426
▁지미	-7427
▁캡틴	-7428
▁크고	-7429
▁트위	-7430
▁형은	-7431
lect	-7432
ning	-7433
▁생기면	-7434
▁설정을	-7435
▁에이프	-7436
▁욕되게	-7437
▁우리랑	-7438
▁이르게	-7439
▁지금쯤	-7440
▁진짜야	-7441
▁하네요	-7442
▁희망을	-7443
▁맹세하며	-7444
▁순종하라	-7445
▁자네에게	-7446
▁괜찮습니다	-7447
RI	-7448
ai	-7449
▁좁	-7450
기와	-7451
동을	-7452
로가	-7453
프레	-7454
▁ca	-7455
▁리더	-7456
▁방을	-7457
▁줄을	-7458
▁콜롬	-7459
▁해준	-7460
신가요	-7461
었거든	-7462
land	-7463
▁CIA	-7464
▁May	-7465
▁ent	-7466
▁가난한	-7467
▁갈거야	-7468
▁남았어	-7469
▁만나게	-7470
▁보인다	-7471
▁상태로	-7472
▁아가야	-7473
▁아시죠	-7474
▁약속해	-7475
▁침대에	-7476
▁함수는	-7477
▁미안한데	-7478
▁어떻게든	-7479
▁이야기가	-7480
▁프로젝트	-7481
▁night	-7482
▁script	-7483
데이	-7484
모든	-7485
살이	-7486
프가	-7487
▁고든	-7488
▁뒤를	-7489
▁로봇	-7490
▁물에	-7491
▁배운	-7492
▁사탕	-7493
▁소수	-7494
▁지워	-7495
▁하매	-7496
▁300	-7497
▁되노라	-7498
▁말하기	-7499
▁언니가	-7500
▁이리로	-7501
▁전부터	-7502
▁하나요	-7503
▁해결할	-7504
ifier	-7505
-1	-7506
괜찮	-7507
동이	-7508
위는	-7509
▁경외	-7510
▁구급	-7511
▁내린	-7512
▁돕는	-7513
▁듣게	-7514
▁명을	-7515
▁반역	-7516
▁분위	-7517
▁신은	-7518
▁이익	-7519
▁참석	-7520
▁참조	-7521
▁토끼	-7522
▁필립	-7523
나봐요	-7524
베이터	-7525
ined	-7526
▁교훈이	-7527
▁국장님	-7528
▁둘이서	-7529
▁사랑은	-7530
▁스티브	-7531
▁심하게	-7532
▁아버진	-7533
▁어떡해	-7534
▁올게요	-7535
▁적절한	-7536
구먼	-7537
말씀	-7538
인거	-7539
파티	-7540
혔어	-7541
▁oh	-7542
▁그나	-7543
▁기타	-7544
▁남긴	-7545
▁넣고	-7546
▁달린	-7547
▁답을	-7548
▁당한	-7549
▁부스	-7550
▁선배	-7551
▁신청	-7552
▁싶다	-7553
▁언덕	-7554
▁에디	-7555
▁외국	-7556
▁의도	-7557
▁작가	-7558
▁적을	-7559
▁추락	-7560
▁추종	-7561
이었고	-7562
▁놈들을	-7563
▁들어온	-7564
▁리스트	-7565
▁사하여	-7566
▁위험을	-7567
▁위험해	-7568
▁저희의	-7569
▁지옥에	-7570
▁지옥이	-7571
▁파일이	-7572
▁diff	-7573
▁link	-7574
▁yeah	-7575
▁그것들은	-7576
▁데이비드	-7577
▁보입니다	-7578
▁여러분의	-7579
▁충만하신	-7580
az	-7581
ye	-7582
▁렌	-7583
▁씌	-7584
움이	-7585
▁em	-7586
▁꾸미	-7587
▁로즈	-7588
▁봤을	-7589
▁신문	-7590
▁싸웠	-7591
▁왔네	-7592
▁우승	-7593
▁인쇄	-7594
▁인증	-7595
▁정액	-7596
▁해봤	-7597
▁헤어	-7598
인에게	-7599
clud	-7600
▁괜찮니	-7601
▁권한이	-7602
▁기쁨을	-7603
▁물러나	-7604
▁불공평	-7605
▁스파이	-7606
▁아들아	-7607
▁안다고	-7608
▁재미있	-7609
▁지키고	-7610
▁필요도	-7611
들로부터	-7612
했잖아요	-7613
reate	-7614
▁스스로가	-7615
▁않는다고	-7616
io	-7617
게도	-7618
내야	-7619
했소	-7620
aby	-7621
▁32	-7622
▁각자	-7623
▁걷는	-7624
▁고칠	-7625
▁덮어	-7626
▁배리	-7627
▁변명	-7628
▁상을	-7629
▁세게	-7630
▁야곱	-7631
▁월터	-7632
▁으며	-7633
▁자료	-7634
▁직장	-7635
▁참가	-7636
▁평소	-7637
▁항복	-7638
▁Are	-7639
▁누구랑	-7640
▁당신네	-7641
▁데려왔	-7642
▁떨어지	-7643
▁사랑이	-7644
▁사무드	-7645
▁상황에	-7646
▁않았지	-7647
▁찾으러	-7648
▁태어났	-7649
▁프라이	-7650
▁프란시	-7651
▁플러그인	-7652
▁conne	-7653
▁connection	-7654
▁붕	-7655
제로	-7656
중이	-7657
플릿	-7658
▁(%	-7659
▁계집	-7660
▁고난	-7661
▁났어	-7662
▁독립	-7663
▁마다	-7664
▁말았	-7665
▁미쳐	-7666
▁바가	-7667
▁복이	-7668
▁빠르	-7669
▁삶이	-7670
▁삽입	-7671
▁수락	-7672
▁와인	-7673
▁원할	-7674
▁있냐	-7675
▁찰리	-7676
▁춤을	-7677
▁큰일	-7678
▁투쟁	-7679
▁하긴	-7680
▁흘러	-7681
소에서	-7682
하기를	-7683
augh	-7684
stem	-7685
▁ask	-7686
▁그러시	-7687
▁나와서	-7688
▁바다를	-7689
▁애디슨	-7690
▁제외라	-7691
▁질문에	-7692
▁축복을	-7693
▁편지를	-7694
▁돌아오지	-7695
▁있으세요	-7696
▁하셨어요	-7697
▁column	-7698
▁following	-7699
▁룸	-7700
▁붉	-7701
▁흩	-7702
모의	-7703
분들	-7704
세가	-7705
판을	-7706
▁Or	-7707
▁속도	-7708
▁작별	-7709
▁종려	-7710
▁추측	-7711
주셔서	-7712
하겠다	-7713
▁도망쳐	-7714
▁따라가	-7715
▁신부님	-7716
▁약속한	-7717
▁여행을	-7718
▁자식이	-7719
▁저주가	-7720
▁지식을	-7721
▁감사하는	-7722
▁모르잖아	-7723
▁필요없어	-7724
anguage	-7725
▁꽂	-7726
▁컬	-7727
것에	-7728
자요	-7729
lob	-7730
▁고민	-7731
▁곤란	-7732
▁던지	-7733
▁됐네	-7734
▁먹지	-7735
▁생산	-7736
▁수호	-7737
▁아일	-7738
▁조절	-7739
▁존나	-7740
▁주관	-7741
▁척추	-7742
▁출입	-7743
▁타임	-7744
▁타입	-7745
▁경우는	-7746
▁나한텐	-7747
▁넘어가	-7748
▁불신한	-7749
▁약속된	-7750
▁어디가	-7751
▁하자고	-7752
abase	-7753
▁불신하고	-7754
▁선지자와	-7755
▁존재하지	-7756
▁중요하지	-7757
▁after	-7758
ug	-7759
▁롭	-7760
고는	-7761
그만	-7762
션을	-7763
위의	-7764
▁걸고	-7765
▁계곡	-7766
▁계단	-7767
▁다양	-7768
▁도전	-7769
▁망쳐	-7770
▁법정	-7771
▁안가	-7772
▁외부	-7773
▁우와	-7774
▁유인	-7775
▁있대	-7776
▁자궁	-7777
▁즐겁	-7778
한테는	-7779
했거든	-7780
ient	-7781
▁Who	-7782
▁thr	-7783
▁늦었어	-7784
▁보내지	-7785
▁아들은	-7786
▁알려줘	-7787
▁인생은	-7788
▁종들을	-7789
▁케이트	-7790
▁하느님	-7791
▁ever	-7792
▁자에게는	-7793
▁반갑습니다	-7794
▁프로그램을	-7795
ek	-7796
▁벙	-7797
▁캔	-7798
여자	-7799
주가	-7800
reg	-7801
▁깊이	-7802
▁듣기	-7803
▁등록	-7804
▁목에	-7805
▁밴드	-7806
▁버전	-7807
▁술집	-7808
▁아빤	-7809
▁워커	-7810
▁자말	-7811
▁피할	-7812
당하게	-7813
이시며	-7814
▁bit	-7815
▁감정을	-7816
▁그리스	-7817
▁나이가	-7818
▁데리러	-7819
▁들려요	-7820
▁들으시	-7821
▁않았죠	-7822
▁암호화	-7823
▁연락을	-7824
▁이대로	-7825
▁찾으면	-7826
ually	-7827
▁kill	-7828
▁부모님이	-7829
▁생각하나	-7830
de	-7831
리오	-7832
분간	-7833
와는	-7834
한지	-7835
▁가문	-7836
▁같애	-7837
▁멈췄	-7838
▁미첼	-7839
▁이안	-7840
▁지니	-7841
▁차는	-7842
▁칼을	-7843
▁팀이	-7844
레이크	-7845
이라서	-7846
mber	-7847
▁공격을	-7848
▁단순한	-7849
▁떠나는	-7850
▁명령에	-7851
▁보호할	-7852
▁여자야	-7853
▁통하여	-7854
▁home	-7855
▁생각이야	-7856
▁아니니까	-7857
▁필요하면	-7858
▁better	-7859
▁놨	-7860
▁펭	-7861
▁흰	-7862
관은	-7863
께선	-7864
됐다	-7865
랄까	-7866
로군	-7867
선에	-7868
으실	-7869
이도	-7870
차를	-7871
▁Br	-7872
▁LA	-7873
▁다면	-7874
▁둘을	-7875
▁떼어	-7876
▁마취	-7877
▁맞이	-7878
▁모델	-7879
▁읽고	-7880
▁입에	-7881
▁잘생	-7882
▁팔을	-7883
▁후손	-7884
드려요	-7885
하는건	-7886
▁가족은	-7887
▁눈으로	-7888
▁다치게	-7889
▁미국인	-7890
▁보호를	-7891
▁오늘이	-7892
이라구요	-7893
fetch	-7894
▁돌아가서	-7895
▁맹세하사	-7896
▁원하시는	-7897
▁죽었다고	-7898
▁주님께서는	-7899
▁입력하십시오	-7900
▁궤	-7901
나를	-7902
때문	-7903
조를	-7904
줄을	-7905
카락	-7906
ler	-7907
▁감각	-7908
▁눌러	-7909
▁동굴	-7910
▁모임	-7911
▁브래	-7912
▁비용	-7913
▁비웃	-7914
▁소송	-7915
▁소아	-7916
▁우유	-7917
▁은퇴	-7918
▁저격	-7919
▁할래	-7920
ouse	-7921
▁멈추지	-7922
▁사탄은	-7923
▁선택을	-7924
▁알고있	-7925
▁여성이	-7926
▁정신을	-7927
▁죽음이	-7928
▁커다란	-7929
▁해서요	-7930
▁해치지	-7931
▁feel	-7932
▁들어가게	-7933
▁Thank	-7934
",	-7935
▁덴	-7936
▁햄	-7937
그렇	-7938
디언	-7939
터에	-7940
▁On	-7941
▁겨울	-7942
▁그도	-7943
▁꼬맹	-7944
▁대상	-7945
▁뜻을	-7946
▁모여	-7947
▁배치	-7948
▁성하	-7949
▁스콧	-7950
▁신분	-7951
▁신선	-7952
▁율법	-7953
▁집착	-7954
▁포도	-7955
▁해가	-7956
▁화를	-7957
▁훔친	-7958
자로써	-7959
▁boy	-7960
▁cor	-7961
▁같구나	-7962
▁나보고	-7963
▁대지의	-7964
▁드레스	-7965
▁주시는	-7966
▁죽이려	-7967
▁하늘이	-7968
▁해봐요	-7969
▁계속해서	-7970
▁들었는데	-7971
▁모른다고	-7972
▁미안합니다	-7973
▁called	-7974
▁specif	-7975
▁깃	-7976
▁씀	-7977
▁첨	-7978
권이	-7979
기의	-7980
미를	-7981
수에	-7982
우드	-7983
통이	-7984
하냐	-7985
SQL	-7986
▁가죠	-7987
▁거네	-7988
▁바지	-7989
▁속죄	-7990
▁신기	-7991
▁양육	-7992
▁엄만	-7993
▁없군	-7994
▁우두	-7995
▁유산	-7996
▁지났	-7997
▁태그	-7998
까지는	-7999
▁ins	-8000
▁가까워	-8001
▁곳이야	-8002
▁구하지	-8003
▁궁금해	-8004
▁말했던	-8005
▁범인은	-8006
▁속으로	-8007
▁알아들	-8008
▁어딘가	-8009
▁프로토	-8010
셨습니다	-8011
ments	-8012
▁있겠어요	-8013
eneric	-8014
▁ident	-8015
▁second	-8016
▁곱	-8017
▁햇	-8018
관계	-8019
몬드	-8020
어들	-8021
일로	-8022
ied	-8023
▁Gr	-8024
▁값을	-8025
▁골절	-8026
▁맛보	-8027
▁부엌	-8028
▁브리	-8029
▁사내	-8030
▁싶진	-8031
▁에릭	-8032
▁위대	-8033
▁의탁	-8034
▁장비	-8035
▁지식	-8036
▁칭찬	-8037
▁파악	-8038
menu	-8039
open	-8040
▁강하게	-8041
▁남편을	-8042
▁뭐하고	-8043
▁바꾸기	-8044
▁어떤가	-8045
▁죽었을	-8046
▁너희들을	-8047
▁머리카락	-8048
▁불가능한	-8049
▁선조들이	-8050
▁아니거든	-8051
▁자비로우	-8052
▁those	-8053
▁뭐하는거야	-8054
▁생각하느뇨	-8055
▁button	-8056
▁values	-8057
▁variable	-8058
my	-8059
구멍	-8060
좋아	-8061
ses	-8062
▁Ma	-8063
▁가운	-8064
▁국제	-8065
▁끝이	-8066
▁뜻은	-8067
▁염려	-8068
▁영상	-8069
▁잃게	-8070
▁졸라	-8071
▁타는	-8072
하시죠	-8073
했었어	-8074
ince	-8075
▁DVD	-8076
▁가슴을	-8077
▁경찰에	-8078
▁그런게	-8079
▁모세의	-8080
▁방으로	-8081
▁상당히	-8082
▁없었죠	-8083
▁있는건	-8084
▁작업을	-8085
▁전체를	-8086
▁하도다	-8087
▁한시간	-8088
자들이라	-8089
▁wind	-8090
▁대해서는	-8091
▁수술실에	-8092
▁않았다면	-8093
▁있었잖아	-8094
심과	-8095
심한	-8096
ipp	-8097
man	-8098
▁Se	-8099
▁골라	-8100
▁글을	-8101
▁너흰	-8102
▁늑대	-8103
▁마디	-8104
▁모듈	-8105
▁무장	-8106
▁물려	-8107
▁오토	-8108
▁제프	-8109
▁주제	-8110
▁해당	-8111
▁환상	-8112
▁흐르	-8113
되었을	-8114
▁Ser	-8115
▁sir	-8116
▁걱정할	-8117
▁경찰은	-8118
▁대지에	-8119
▁마술사	-8120
▁수많은	-8121
▁않네요	-8122
▁죽음의	-8123
▁질문이	-8124
▁made	-8125
▁개인적인	-8126
▁그러세요	-8127
▁있었으면	-8128
ww	-8129
력은	-8130
버그	-8131
oci	-8132
▁구별	-8133
▁따른	-8134
▁분을	-8135
▁생물	-8136
▁씨는	-8137
▁줬어	-8138
▁집은	-8139
▁참을	-8140
▁창피	-8141
▁총에	-8142
▁파란	-8143
▁헌신	-8144
▁대가를	-8145
▁동생이	-8146
▁떨어뜨	-8147
▁위험에	-8148
▁이제야	-8149
▁페이스	-8150
▁하겠어	-8151
하였으나	-8152
▁목소리를	-8153
▁생각보다	-8154
▁싶습니다	-8155
▁위해서라	-8156
▁주옵소서	-8157
▁콜롬비아	-8158
▁server	-8159
▁챔	-8160
물로	-8161
▁db	-8162
▁가깝	-8163
▁다름	-8164
▁두었	-8165
▁드는	-8166
▁보장	-8167
▁북쪽	-8168
▁뽑아	-8169
▁살릴	-8170
▁서는	-8171
▁서쪽	-8172
▁섬기	-8173
▁세대	-8174
▁쇼핑	-8175
▁안그	-8176
▁열려	-8177
▁제니	-8178
▁지은	-8179
▁쫓겨	-8180
▁패배	-8181
▁하찮	-8182
▁항공	-8183
▁해제	-8184
▁희는	-8185
것처럼	-8186
▁되겠죠	-8187
▁명령이	-8188
▁소중한	-8189
▁않다고	-8190
▁않잖아	-8191
▁알겠죠	-8192
▁태어난	-8193
▁프랭키	-8194
▁했으면	-8195
▁line	-8196
▁이야기는	-8197
▁필요하다	-8198
▁하나님이시라	-8199
gr	-8200
▁떡	-8201
▁샐	-8202
리다	-8203
ves	-8204
▁강간	-8205
▁링크	-8206
▁물질	-8207
▁밤이	-8208
▁백인	-8209
▁봐서	-8210
▁소릴	-8211
▁속이	-8212
▁않기	-8213
▁자의	-8214
▁지랄	-8215
▁키를	-8216
▁택시	-8217
▁퍼뜨	-8218
▁해군	-8219
▁흉부	-8220
버리고	-8221
▁won	-8222
▁모르게	-8223
▁밑에서	-8224
▁소식은	-8225
▁좋다고	-8226
▁지상에	-8227
▁마리아의	-8228
▁프로토콜	-8229
▁하였으나	-8230
▁month	-8231
▁죠	-8232
상황	-8233
▁Ex	-8234
▁도박	-8235
▁동쪽	-8236
▁두라	-8237
▁드려	-8238
▁맛이	-8239
▁모험	-8240
▁버스	-8241
▁블루	-8242
▁애기	-8243
▁연료	-8244
▁줘봐	-8245
▁차고	-8246
▁카운	-8247
으려면	-8248
음이라	-8249
이란다	-8250
ages	-8251
▁구원을	-8252
▁뛰어난	-8253
▁뜨거운	-8254
▁아무데	-8255
▁give	-8256
▁left	-8257
▁word	-8258
▁사용하면	-8259
▁field	-8260
▁사용합니다	-8261
▁뜯	-8262
▁템	-8263
▁틈	-8264
리야	-8265
보기	-8266
회의	-8267
▁경건	-8268
▁끝에	-8269
▁남의	-8270
▁님을	-8271
▁배에	-8272
▁셔먼	-8273
▁오로	-8274
▁인해	-8275
▁자전	-8276
▁충성	-8277
리스트	-8278
스크림	-8279
었다면	-8280
이기도	-8281
해지고	-8282
▁나쁘지	-8283
▁나왔어	-8284
▁아빠랑	-8285
▁주셔서	-8286
▁천국이	-8287
▁편하게	-8288
▁하셨죠	-8289
이었노라	-8290
▁괜찮아질	-8291
▁위해서는	-8292
▁있다구요	-8293
▁있었지만	-8294
▁진정해요	-8295
▁place	-8296
▁사랑한다고	-8297
▁밋	-8298
▁찼	-8299
▁턱	-8300
거란	-8301
랑이	-8302
미안	-8303
병이	-8304
서야	-8305
속의	-8306
았을	-8307
주신	-8308
커스	-8309
하곤	-8310
ool	-8311
▁==	-8312
▁Lu	-8313
▁끝장	-8314
▁남겼	-8315
▁놔둬	-8316
▁당겨	-8317
▁됐고	-8318
▁로드	-8319
▁머피	-8320
▁먹은	-8321
▁벌레	-8322
▁안젤	-8323
▁접촉	-8324
▁하룻	-8325
들처럼	-8326
점에서	-8327
주의자	-8328
▁DNA	-8329
▁나님을	-8330
▁내용을	-8331
▁아기는	-8332
▁여자와	-8333
▁자손을	-8334
▁케이스	-8335
▁해냈어	-8336
하십니까	-8337
ister	-8338
▁괜찮으세요	-8339
▁너희들에게	-8340
▁모르겠는데	-8341
▁아이스크림	-8342
ml	-8343
pp	-8344
▁긍	-8345
국에	-8346
바닥	-8347
우면	-8348
ero	-8349
the	-8350
▁기운	-8351
▁다쳤	-8352
▁도달	-8353
▁밝히	-8354
▁버린	-8355
▁쉬어	-8356
▁알파	-8357
▁애나	-8358
▁인색	-8359
▁장벽	-8360
▁해방	-8361
▁후보	-8362
,000	-8363
▁500	-8364
▁마음의	-8365
▁말해서	-8366
▁상태를	-8367
▁아파요	-8368
▁어떨까	-8369
▁엉덩이	-8370
▁오디오	-8371
▁으리라	-8372
▁주거지	-8373
▁책임을	-8374
하였으매	-8375
했거든요	-8376
▁case	-8377
▁stop	-8378
▁거라고요	-8379
▁것이라고	-8380
▁생각하면	-8381
▁아주머니	-8382
▁있을지도	-8383
▁being	-8384
RE	-8385
br	-8386
▁갤	-8387
▁씹	-8388
▁쭉	-8389
까봐	-8390
보드	-8391
시게	-8392
에다	-8393
저히	-8394
ner	-8395
oup	-8396
▁굴욕	-8397
▁네이	-8398
▁백만	-8399
▁봤죠	-8400
▁부담	-8401
▁사격	-8402
▁시야	-8403
▁유익	-8404
▁이블	-8405
▁주입	-8406
▁중간	-8407
▁취급	-8408
▁하얀	-8409
▁해낼	-8410
▁bad	-8411
▁ref	-8412
▁남자애	-8413
▁누구요	-8414
▁말했죠	-8415
▁모습이	-8416
▁안전해	-8417
▁약속은	-8418
▁예언자	-8419
▁이거야	-8420
▁일종의	-8421
▁잡았어	-8422
erman	-8423
▁HTML	-8424
▁들어봐요	-8425
▁시간이야	-8426
▁시작하는	-8427
▁인도하지	-8428
▁천사들을	-8429
▁format	-8430
▁success	-8431
▁킬	-8432
▁풋	-8433
과도	-8434
닥터	-8435
떻게	-8436
리나	-8437
스톤	-8438
싶은	-8439
여기	-8440
저기	-8441
타가	-8442
회를	-8443
▁감동	-8444
▁노여	-8445
▁놔두	-8446
▁때를	-8447
▁버텨	-8448
▁불평	-8449
▁살짝	-8450
▁스포	-8451
▁여태	-8452
▁유언	-8453
▁이주	-8454
▁저요	-8455
▁주에	-8456
▁치고	-8457
▁클로	-8458
▁폐쇄	-8459
▁했네	-8460
▁헬렌	-8461
겁니까	-8462
는지는	-8463
▁big	-8464
▁계획은	-8465
▁그러자	-8466
▁대신에	-8467
▁미란다	-8468
▁밑으로	-8469
▁보상은	-8470
▁심판을	-8471
▁어린애	-8472
▁여기야	-8473
▁정신과	-8474
▁주변에	-8475
▁주위를	-8476
▁필요없	-8477
하거든요	-8478
▁told	-8479
▁생각에는	-8480
▁창조하셨	-8481
▁found	-8482
▁friend	-8483
enericName	-8484
-0	-8485
10	-8486
uh	-8487
▁킴	-8488
걸세	-8489
고자	-8490
국을	-8491
다네	-8492
베스	-8493
석에	-8494
타를	-8495
타인	-8496
환자	-8497
▁28	-8498
▁te	-8499
▁모음	-8500
▁몰리	-8501
▁써야	-8502
▁음성	-8503
▁이어	-8504
▁절단	-8505
▁좋고	-8506
▁해냈	-8507
▁yöu	-8508
▁너무나	-8509
▁논쟁을	-8510
▁드세요	-8511
▁몇가지	-8512
▁발견치	-8513
▁싶지만	-8514
▁아니할	-8515
▁안되요	-8516
▁알겠다	-8517
▁응벌이	-8518
졌습니다	-8519
▁star	-8520
▁나왔어요	-8521
▁얘기하지	-8522
▁있어서요	-8523
▁필요하지	-8524
▁inmenu	-8525
▁socket	-8526
SI	-8527
▁끓	-8528
▁밈	-8529
구역	-8530
길을	-8531
스퍼	-8532
실이	-8533
우가	-8534
우지	-8535
ien	-8536
vel	-8537
▁가려	-8538
▁과정	-8539
▁근육	-8540
▁다만	-8541
▁로마	-8542
▁말만	-8543
▁맡겨	-8544
▁민족	-8545
▁배울	-8546
▁분도	-8547
▁샌드	-8548
▁안들	-8549
▁여유	-8550
▁열고	-8551
▁제작	-8552
▁죄책	-8553
납니다	-8554
이었던	-8555
자리를	-8556
하는걸	-8557
▁ooh	-8558
▁가라고	-8559
▁가야지	-8560
▁것인가	-8561
▁끝이야	-8562
▁모양이	-8563
▁보고서	-8564
▁보니까	-8565
▁복잡한	-8566
▁뿐이죠	-8567
▁섹스를	-8568
▁시리아	-8569
▁어쩌다	-8570
▁엄마의	-8571
▁엘리자	-8572
▁오빠가	-8573
▁있었나	-8574
▁자들에	-8575
▁찾아봐	-8576
▁해보자	-8577
▁away	-8578
▁대통령님	-8579
▁드라이브	-8580
▁사용하지	-8581
▁이상하게	-8582
▁이해하는	-8583
▁자동으로	-8584
▁개인적으로	-8585
▁수술실에서	-8586
GenericName	-8587
▁껴	-8588
▁뱃	-8589
내기	-8590
다운	-8591
티가	-8592
호흡	-8593
key	-8594
ser	-8595
▁OF	-8596
▁교황	-8597
▁꾸며	-8598
▁끝낼	-8599
▁스피	-8600
▁영리	-8601
▁윌슨	-8602
▁일시	-8603
▁전능	-8604
▁진작	-8605
▁희를	-8606
상에서	-8607
안에서	-8608
했나요	-8609
inal	-8610
▁못하면	-8611
▁새끼야	-8612
▁신호를	-8613
▁아파트	-8614
▁않더라	-8615
▁영화를	-8616
▁정부가	-8617
▁찾아와	-8618
▁천사가	-8619
▁가운데는	-8620
▁괜찮다고	-8621
▁생각했던	-8622
▁하잖아요	-8623
▁Where	-8624
▁마찬가지로	-8625
▁through	-8626
ta	-8627
▁밧	-8628
▁션	-8629
갔다	-8630
경에	-8631
고가	-8632
나면	-8633
놓을	-8634
란드	-8635
량을	-8636
타는	-8637
하단	-8638
der	-8639
ier	-8640
▁거면	-8641
▁고집	-8642
▁내는	-8643
▁너머	-8644
▁달콤	-8645
▁렉시	-8646
▁마틴	-8647
▁복귀	-8648
▁세탁	-8649
▁증인	-8650
▁현명	-8651
뭡니까	-8652
▁기도를	-8653
▁끝내주	-8654
▁들어간	-8655
▁번이나	-8656
▁봅시다	-8657
▁시키는	-8658
▁영혼이	-8659
▁유대인	-8660
▁줬어요	-8661
▁지금이	-8662
field	-8663
▁마음대로	-8664
▁인생에서	-8665
▁전화번호	-8666
▁point	-8667
BC	-8668
▁층	-8669
검사	-8670
다음	-8671
름에	-8672
베카	-8673
부는	-8674
성애	-8675
요원	-8676
초에	-8677
코딩	-8678
ern	-8679
len	-8680
▁길은	-8681
▁끊어	-8682
▁레너	-8683
▁맞은	-8684
▁바퀴	-8685
▁불구	-8686
▁색깔	-8687
▁속삭	-8688
▁숫자	-8689
▁엑스	-8690
▁이빨	-8691
▁적어	-8692
▁줄래	-8693
▁지방	-8694
▁커플	-8695
▁트래	-8696
▁표정	-8697
▁표준	-8698
▁하드	-8699
▁혈관	-8700
▁후원	-8701
데이트	-8702
라니까	-8703
하고요	-8704
하다니	-8705
word	-8706
▁old	-8707
▁거였어	-8708
▁그런가	-8709
▁않은데	-8710
▁올리버	-8711
▁일으키	-8712
▁하여도	-8713
▁누군가는	-8714
▁비행기를	-8715
▁아니겠지	-8716
▁괜찮을거야	-8717
PS	-8718
cm	-8719
oy	-8720
▁쉿	-8721
기나	-8722
답게	-8723
리로	-8724
소한	-8725
여요	-8726
왔다	-8727
app	-8728
ood	-8729
▁"%	-8730
▁Am	-8731
▁감수	-8732
▁괜히	-8733
▁굳이	-8734
▁그랜	-8735
▁기절	-8736
▁노동	-8737
▁무게	-8738
▁비어	-8739
▁알렌	-8740
▁자체	-8741
▁적응	-8742
▁키가	-8743
▁팀을	-8744
였다고	-8745
이라구	-8746
▁공주님	-8747
▁사건에	-8748
▁없었지	-8749
▁있는걸	-8750
itche	-8751
▁말씀하시	-8752
▁무엇이뇨	-8753
▁아버지와	-8754
▁있었나요	-8755
▁자랑스러워	-8756
▁database	-8757
▁갱	-8758
▁셨	-8759
▁얜	-8760
▁큐	-8761
감사	-8762
구려	-8763
박이	-8764
즈가	-8765
클린	-8766
학년	-8767
▁Ar	-8768
▁갖는	-8769
▁게는	-8770
▁견뎌	-8771
▁기밀	-8772
▁노인	-8773
▁님께	-8774
▁대적	-8775
▁부적	-8776
▁심한	-8777
▁애야	-8778
▁없단	-8779
▁에그	-8780
▁적합	-8781
▁전염	-8782
▁절개	-8783
▁한가	-8784
▁해피	-8785
▁휴가	-8786
다면요	-8787
을까요	-8788
하다가	-8789
▁계시가	-8790
▁디스크	-8791
▁무리를	-8792
▁뭡니까	-8793
▁보면서	-8794
▁사업을	-8795
▁성약을	-8796
▁소리지	-8797
▁자전거	-8798
▁헤일리	-8799
▁현세와	-8800
렸습니다	-8801
왔습니다	-8802
▁hard	-8803
▁계시노라	-8804
▁인간에게	-8805
"?	-8806
▁멤	-8807
▁튜	-8808
땜에	-8809
류를	-8810
슬리	-8811
인걸	-8812
장치	-8813
점에	-8814
정맥	-8815
할때	-8816
회에	-8817
ash	-8818
▁놀랄	-8819
▁도록	-8820
▁들면	-8821
▁서비	-8822
▁원격	-8823
▁자원	-8824
▁진료	-8825
▁차로	-8826
▁참아	-8827
▁처벌	-8828
▁치유	-8829
▁하되	-8830
▁확증	-8831
일이야	-8832
▁reg	-8833
▁가려고	-8834
▁경찰을	-8835
▁남자의	-8836
▁너희도	-8837
▁누군데	-8838
▁느끼는	-8839
▁되리니	-8840
▁반가워	-8841
▁알면서	-8842
▁자세한	-8843
▁real	-8844
▁누구든지	-8845
▁사람으로	-8846
▁어떠세요	-8847
▁유일하게	-8848
▁이곳에서	-8849
▁할머니가	-8850
▁config	-8851
▁things	-8852
AP	-8853
xt	-8854
ᄏᄏ	-8855
▁락	-8856
그들	-8857
내에	-8858
목을	-8859
받아	-8860
아웃	-8861
있죠	-8862
하이	-8863
▁As	-8864
▁et	-8865
▁sm	-8866
▁구분	-8867
▁만세	-8868
▁많지	-8869
▁붉은	-8870
▁속성	-8871
▁전략	-8872
▁주요	-8873
▁즐겨	-8874
▁한거	-8875
리스가	-8876
버리는	-8877
셔야죠	-8878
중이야	-8879
ions	-8880
▁구하기	-8881
▁그것의	-8882
▁내려와	-8883
▁녀석은	-8884
▁다니는	-8885
▁숨겨진	-8886
▁시작한	-8887
▁아니네	-8888
▁역할을	-8889
▁원하면	-8890
▁있기를	-8891
▁진리가	-8892
었거든요	-8893
하셨으니	-8894
▁다운로드	-8895
▁당신이랑	-8896
▁아프리카	-8897
▁이것들은	-8898
▁잃어버린	-8899
▁확실하게	-8900
▁두려워하고	-8901
▁불신자들의	-8902
▁>	-8903
금이	-8904
먹고	-8905
브가	-8906
아빠	-8907
업을	-8908
오면	-8909
▁70	-8910
▁기준	-8911
▁눈은	-8912
▁러나	-8913
▁로맨	-8914
▁로비	-8915
▁벽에	-8916
▁빼내	-8917
▁사부	-8918
▁수리	-8919
▁신성	-8920
▁위젯	-8921
▁자랐	-8922
▁처방	-8923
▁터널	-8924
▁특수	-8925
▁패턴	-8926
▁피츠	-8927
▁한달	-8928
▁한방	-8929
하는자	-8930
하소서	-8931
usic	-8932
▁kid	-8933
▁그랬던	-8934
▁끝나고	-8935
▁다음과	-8936
▁동안에	-8937
▁드라마	-8938
▁라그나	-8939
▁레베카	-8940
▁사탄이	-8941
▁순간을	-8942
▁스트레	-8943
▁없었고	-8944
▁위원회	-8945
▁이해를	-8946
▁하룻밤	-8947
▁행위에	-8948
▁나머지는	-8949
▁말해봐요	-8950
▁여자들이	-8951
▁주었노라	-8952
▁쉘	-8953
▁핫	-8954
아나	-8955
했군	-8956
화가	-8957
▁0.	-8958
▁가시	-8959
▁날씨	-8960
▁만남	-8961
▁맡기	-8962
▁먹여	-8963
▁못된	-8964
▁바랄	-8965
▁별일	-8966
▁빨라	-8967
▁오락	-8968
▁조이	-8969
▁통치	-8970
위에서	-8971
▁그날이	-8972
▁무언가	-8973
▁보이고	-8974
▁안했어	-8975
▁알아낼	-8976
▁음식이	-8977
▁힘들게	-8978
▁code	-8979
▁kind	-8980
▁감옥에서	-8981
▁그곳으로	-8982
▁기억하지	-8983
▁안됩니다	-8984
▁어딨어요	-8985
▁완벽하게	-8986
▁왼쪽으로	-8987
▁하더군요	-8988
▁search	-8989
▁default	-8990
▁쌀	-8991
▁춘	-8992
일라	-8993
정말	-8994
▁꿈이	-8995
▁명확	-8996
▁모셔	-8997
▁버티	-8998
▁시카	-8999
▁쏘지	-9000
▁아끼	-9001
▁에워	-9002
▁웃긴	-9003
▁원하	-9004
▁임종	-9005
▁초콜	-9006
▁타겟	-9007
▁해줬	-9008
그들이	-9009
었나요	-9010
하겠네	-9011
▁가르치	-9012
▁같더라	-9013
▁고맙소	-9014
▁그분과	-9015
▁말하며	-9016
▁여자의	-9017
▁운명을	-9018
▁저도요	-9019
▁기다려야	-9020
▁빠져나가	-9021
▁어떻게요	-9022
▁없을거야	-9023
▁일어나고	-9024
▁두려워하는	-9025
▁두려워하지	-9026
▁around	-9027
cription	-9028
PE	-9029
▁삐	-9030
▁앰	-9031
계가	-9032
모가	-9033
물의	-9034
이제	-9035
확인	-9036
rol	-9037
▁금발	-9038
▁기자	-9039
▁놓아	-9040
▁되니	-9041
▁브랜	-9042
▁세월	-9043
▁신체	-9044
▁영어	-9045
▁영향	-9046
▁우회	-9047
▁인공	-9048
▁자요	-9049
▁잠이	-9050
▁찍은	-9051
▁쿠퍼	-9052
▁혐오	-9053
▁화재	-9054
일거야	-9055
처럼요	-9056
ever	-9057
pect	-9058
▁거주지	-9059
▁관해서	-9060
▁나이트	-9061
▁누구를	-9062
▁모니터	-9063
▁보냈어	-9064
▁불러요	-9065
▁사이를	-9066
▁수밖에	-9067
▁중요해	-9068
▁하나니	-9069
하겠다고	-9070
aving	-9071
▁들어가면	-9072
▁사무실에	-9073
▁움직이는	-9074
▁친구들은	-9075
▁생각하세요	-9076
▁아니함이라	-9077
▁뚜	-9078
그는	-9079
렸죠	-9080
르가	-9081
바디	-9082
봐도	-9083
싶지	-9084
제이	-9085
통을	-9086
▁가보	-9087
▁견디	-9088
▁기증	-9089
▁대원	-9090
▁로렌	-9091
▁벌은	-9092
▁보도	-9093
▁스웨	-9094
▁싸운	-9095
▁아론	-9096
▁아스	-9097
▁연합	-9098
▁웃음	-9099
▁종이	-9100
▁집도	-9101
레이드	-9102
부에서	-9103
▁거군요	-9104
▁경고를	-9105
▁구하여	-9106
▁누르면	-9107
▁동생을	-9108
▁되돌아	-9109
▁들었지	-9110
▁물어봤	-9111
▁선택할	-9112
▁싶네요	-9113
▁안타깝	-9114
▁알아냈	-9115
▁이곳은	-9116
▁이름도	-9117
▁일하러	-9118
▁정직한	-9119
▁해야만	-9120
▁것이거늘	-9121
▁돌아다니	-9122
▁때문이다	-9123
▁못하겠어	-9124
▁생겼어요	-9125
▁않는다는	-9126
▁이르렀을	-9127
▁침대에서	-9128
▁하겠어요	-9129
▁확인하고	-9130
▁includ	-9131
ax	-9132
▁긁	-9133
▁솜	-9134
▁얌	-9135
기간	-9136
나고	-9137
리와	-9138
스도	-9139
ask	-9140
uff	-9141
▁광산	-9142
▁기만	-9143
▁반지	-9144
▁발자	-9145
▁부수	-9146
▁살리	-9147
▁수십	-9148
▁시합	-9149
▁왕의	-9150
▁지팡	-9151
▁평가	-9152
▁현장	-9153
▁혐의	-9154
자로서	-9155
하시지	-9156
하지는	-9157
▁fam	-9158
▁남자와	-9159
▁당분간	-9160
▁되는지	-9161
▁따르라	-9162
▁바람에	-9163
▁사이먼	-9164
▁속도를	-9165
▁어쩌고	-9166
▁연락이	-9167
▁이들의	-9168
▁입으로	-9169
▁제이슨	-9170
▁죽음에	-9171
▁케이크	-9172
▁틀렸어	-9173
▁포르노	-9174
▁프린터	-9175
▁done	-9176
▁에이버리	-9177
▁전쟁에서	-9178
▁belie	-9179
▁엘리베이터	-9180
▁꿰	-9181
그가	-9182
그게	-9183
그를	-9184
면을	-9185
무슨	-9186
백만	-9187
ces	-9188
ors	-9189
▁갈까	-9190
▁것뿐	-9191
▁낮은	-9192
▁두시	-9193
▁매년	-9194
▁멋져	-9195
▁보냄	-9196
▁않소	-9197
▁알겠	-9198
▁여잔	-9199
▁역겨	-9200
▁의식	-9201
▁정렬	-9202
▁화염	-9203
까지만	-9204
드리고	-9205
해야죠	-9206
form	-9207
ison	-9208
▁가능성	-9209
▁강아지	-9210
▁녀석을	-9211
▁대지가	-9212
▁된거야	-9213
▁떠나야	-9214
▁슈퍼걸	-9215
▁신들이	-9216
▁옵션을	-9217
▁인생의	-9218
▁지키는	-9219
▁회사를	-9220
하였나니	-9221
해야겠어	-9222
▁Phil	-9223
▁돌아가야	-9224
▁방식으로	-9225
▁보호자로	-9226
▁아메리카	-9227
▁언젠가는	-9228
▁페이스북	-9229
ok	-9230
▁땀	-9231
▁랄	-9232
▁젤	-9233
▁컵	-9234
▁푹	-9235
나다	-9236
나라	-9237
녀가	-9238
로의	-9239
볼래	-9240
스탄	-9241
즈는	-9242
프는	-9243
필요	-9244
▁강도	-9245
▁공짜	-9246
▁과일	-9247
▁내로	-9248
▁메타	-9249
▁미셸	-9250
▁발렌	-9251
▁보조	-9252
▁앨런	-9253
▁양쪽	-9254
▁잠재	-9255
▁정맥	-9256
▁토니	-9257
▁함이	-9258
▁회전	-9259
었다는	-9260
ater	-9261
ered	-9262
▁dad	-9263
▁min	-9264
▁가족과	-9265
▁깨끗한	-9266
▁놀라게	-9267
▁달러를	-9268
▁먹어야	-9269
▁보이게	-9270
▁어쩌지	-9271
▁연락해	-9272
▁옆에서	-9273
▁이러고	-9274
▁저주를	-9275
▁지혜와	-9276
▁차례야	-9277
▁파일의	-9278
▁했다는	-9279
▁hear	-9280
▁말해줘요	-9281
▁못하도록	-9282
▁사악함을	-9283
▁어머니를	-9284
▁종려나무	-9285
▁좋았어요	-9286
▁흥미로운	-9287
▁Every	-9288
▁시작합니다	-9289
-2	-9290
▁갓	-9291
랬지	-9292
렸지	-9293
십쇼	-9294
았죠	-9295
트릭	-9296
파일	-9297
판에	-9298
품이	-9299
프너	-9300
형이	-9301
att	-9302
his	-9303
str	-9304
▁가스	-9305
▁걸을	-9306
▁고기	-9307
▁굶주	-9308
▁놓쳤	-9309
▁닫아	-9310
▁루디	-9311
▁목욕	-9312
▁묻어	-9313
▁삶에	-9314
▁수집	-9315
▁쉬고	-9316
▁안의	-9317
▁입양	-9318
▁자극	-9319
▁자백	-9320
▁자에	-9321
▁자존	-9322
▁저러	-9323
▁천만	-9324
▁편이	-9325
대에서	-9326
있다고	-9327
▁rel	-9328
▁같다고	-9329
▁결국엔	-9330
▁나가면	-9331
▁나가자	-9332
▁들어본	-9333
▁먹으면	-9334
▁못했을	-9335
▁문제에	-9336
▁발견한	-9337
▁봅니다	-9338
▁선행을	-9339
▁세계를	-9340
▁안전할	-9341
▁않겠어	-9342
▁알려줄	-9343
▁완전한	-9344
▁인간과	-9345
▁일인데	-9346
▁전쟁이	-9347
▁전화가	-9348
▁정도면	-9349
▁종양이	-9350
▁처리할	-9351
▁캣니스	-9352
▁합시다	-9353
더라구요	-9354
하겠어요	-9355
했으니까	-9356
▁modu	-9357
▁show	-9358
▁사실이야	-9359
▁스트레스	-9360
▁어딘가에	-9361
▁충분하지	-9362
▁해야겠어	-9363
▁누구에게도	-9364
▁때문입니다	-9365
▁상관없어요	-9366
년은	-9367
들만	-9368
리조	-9369
바라	-9370
아냐	-9371
여행	-9372
적도	-9373
터는	-9374
ope	-9375
▁고르	-9376
▁무료	-9377
▁미스	-9378
▁쉬는	-9379
▁아르	-9380
▁알림	-9381
▁웃어	-9382
▁의뢰	-9383
▁종복	-9384
▁첫째	-9385
금으로	-9386
되리라	-9387
일까요	-9388
있는데	-9389
ried	-9390
▁Kon	-9391
▁loc	-9392
▁다리가	-9393
▁다양한	-9394
▁보호자	-9395
▁빈센트	-9396
▁자유를	-9397
▁하나로	-9398
잖습니까	-9399
ocess	-9400
▁과장님이	-9401
▁부모님은	-9402
▁아저씨가	-9403
▁어딨는지	-9404
▁인내하라	-9405
▁잘됐네요	-9406
▁하거든요	-9407
onnect	-9408
▁child	-9409
▁없었습니다	-9410
▁조금이라도	-9411
▁댓	-9412
그냥	-9413
보를	-9414
분만	-9415
소로	-9416
위치	-9417
▁27	-9418
▁Tr	-9419
▁기업	-9420
▁나치	-9421
▁너에	-9422
▁동등	-9423
▁묶어	-9424
▁불결	-9425
▁수를	-9426
▁수학	-9427
▁쏟아	-9428
▁않니	-9429
▁입증	-9430
▁잘난	-9431
▁점은	-9432
▁정당	-9433
▁총격	-9434
▁출근	-9435
▁치명	-9436
▁파워	-9437
그들의	-9438
하시나	-9439
하여진	-9440
해야해	-9441
혔어요	-9442
▁Get	-9443
▁감사할	-9444
▁결과는	-9445
▁그니까	-9446
▁대화상	-9447
▁됐네요	-9448
▁들리는	-9449
▁레스토	-9450
▁못하며	-9451
▁바람이	-9452
▁복수를	-9453
▁부인은	-9454
▁설명할	-9455
▁음악을	-9456
▁있도다	-9457
▁플레이	-9458
▁해주고	-9459
ating	-9460
inter	-9461
▁Good	-9462
▁그러는데	-9463
▁선지자로	-9464
▁시스템을	-9465
▁않았으면	-9466
▁여러분은	-9467
▁좋겠네요	-9468
▁주님께로	-9469
ations	-9470
▁message	-9471
▁웰	-9472
메이	-9473
목이	-9474
안돼	-9475
제는	-9476
했단	-9477
omy	-9478
ved	-9479
▁Dr	-9480
▁교환	-9481
▁낸시	-9482
▁동맹	-9483
▁마사	-9484
▁만져	-9485
▁묻지	-9486
▁산책	-9487
▁순례	-9488
▁심리	-9489
▁아플	-9490
▁어쩐	-9491
▁유치	-9492
▁임상	-9493
▁입원	-9494
▁저걸	-9495
▁침묵	-9496
▁화살	-9497
▁Car	-9498
▁데려올	-9499
▁마스크	-9500
▁마시는	-9501
▁말인가	-9502
▁미친놈	-9503
▁보내니	-9504
▁보려고	-9505
▁사고가	-9506
▁손님이	-9507
▁숨기고	-9508
▁아프게	-9509
▁알겠네	-9510
▁앨리스	-9511
▁엄마와	-9512
▁오늘의	-9513
▁왔는지	-9514
▁원했던	-9515
▁있군요	-9516
▁조지가	-9517
▁평화를	-9518
▁하루에	-9519
▁같아서요	-9520
▁보이네요	-9521
▁사람이랑	-9522
▁성스러운	-9523
▁여기에서	-9524
▁자들이며	-9525
▁공식적으로	-9526
CT	-9527
SO	-9528
금지	-9529
다시	-9530
리어	-9531
스카	-9532
진을	-9533
eet	-9534
▁Sp	-9535
▁기반	-9536
▁도주	-9537
▁두배	-9538
▁뭐니	-9539
▁병이	-9540
▁부패	-9541
▁수잔	-9542
▁아우	-9543
▁오실	-9544
▁우물	-9545
▁위성	-9546
▁입어	-9547
▁자도	-9548
▁좀비	-9549
▁특이	-9550
▁한테	-9551
메이트	-9552
봅시다	-9553
사람이	-9554
ands	-9555
▁결혼한	-9556
▁그런후	-9557
▁데려온	-9558
▁마우스	-9559
▁만지지	-9560
▁사건은	-9561
▁선택의	-9562
▁승리를	-9563
▁어딨지	-9564
▁정신병	-9565
▁지옥을	-9566
▁특별히	-9567
▁했었어	-9568
▁했으며	-9569
▁baby	-9570
▁때문에요	-9571
▁아이들은	-9572
▁오셨어요	-9573
▁자랑스럽	-9574
▁nothing	-9575
▁thought	-9576
▁굽	-9577
▁됨	-9578
▁뻗	-9579
▁얭	-9580
것과	-9581
두는	-9582
량이	-9583
물과	-9584
사로	-9585
었소	-9586
인줄	-9587
지와	-9588
하겠	-9589
llo	-9590
▁cr	-9591
▁겠어	-9592
▁공통	-9593
▁깨뜨	-9594
▁께서	-9595
▁놀래	-9596
▁됐나	-9597
▁때의	-9598
▁바늘	-9599
▁부자	-9600
▁성령	-9601
▁성인	-9602
▁수감	-9603
▁시킨	-9604
▁예의	-9605
▁주먹	-9606
▁파는	-9607
▁합의	-9608
기라도	-9609
났어요	-9610
이구나	-9611
▁sim	-9612
▁가득차	-9613
▁관련이	-9614
▁군대가	-9615
▁기록이	-9616
▁님께서	-9617
▁데릭이	-9618
▁못하니	-9619
▁살해당	-9620
▁아빠도	-9621
▁안되지	-9622
▁안식처	-9623
▁웨스트	-9624
▁의식을	-9625
▁토마스	-9626
▁하거든	-9627
▁하시며	-9628
▁해줘야	-9629
aught	-9630
▁guys	-9631
▁가져왔어	-9632
▁그레이스	-9633
▁산산조각	-9634
▁상기하라	-9635
▁소유하고	-9636
▁때문이에요	-9637
▁사람들한테	-9638
:/	-9639
VS	-9640
▁굿	-9641
▁꿀	-9642
▁탱	-9643
umb	-9644
▁1"	-9645
▁35	-9646
▁감자	-9647
▁고대	-9648
▁녹색	-9649
▁늦은	-9650
▁데가	-9651
▁도서	-9652
▁샘플	-9653
▁설계	-9654
▁시원	-9655
▁어쨋	-9656
▁온갖	-9657
▁운반	-9658
▁잡는	-9659
▁조작	-9660
▁종종	-9661
▁짓은	-9662
▁짧은	-9663
▁텍사	-9664
▁페니	-9665
자마자	-9666
FFFF	-9667
bsql	-9668
oman	-9669
▁199	-9670
▁aut	-9671
▁건데요	-9672
▁그분에	-9673
▁다이아	-9674
▁달라요	-9675
▁대답을	-9676
▁들어서	-9677
▁몰라서	-9678
▁브라보	-9679
▁용감한	-9680
▁자기의	-9681
▁주인공	-9682
▁하겠지	-9683
▁하려면	-9684
▁혈압이	-9685
▁그럴지도	-9686
▁수술실로	-9687
▁알겠지만	-9688
▁여러가지	-9689
▁파라오의	-9690
12	-9691
AS	-9692
~~	-9693
▁칩	-9694
구에	-9695
독한	-9696
빨리	-9697
아노	-9698
학생	-9699
com	-9700
▁Le	-9701
▁기적	-9702
▁낫지	-9703
▁돌연	-9704
▁몸은	-9705
▁바쁜	-9706
▁아멘	-9707
▁안할	-9708
▁애니	-9709
▁장님	-9710
▁전원	-9711
▁지고	-9712
▁지낼	-9713
▁진입	-9714
▁추억	-9715
▁크루	-9716
▁화난	-9717
가지고	-9718
것이며	-9719
그들은	-9720
이거든	-9721
ving	-9722
▁가져갈	-9723
▁그렇군	-9724
▁동료가	-9725
▁먹었어	-9726
▁보이네	-9727
▁볼게요	-9728
▁세대를	-9729
▁세번째	-9730
▁신호가	-9731
▁알지도	-9732
▁온거야	-9733
▁음모를	-9734
▁주치의	-9735
▁피곤해	-9736
이야말로	-9737
▁dist	-9738
▁mode	-9739
▁walk	-9740
▁가져오기	-9741
▁건드리지	-9742
▁그분께로	-9743
▁대항하여	-9744
▁우리에겐	-9745
▁이탈리아	-9746
▁일어나서	-9747
▁있었더라	-9748
▁환자에게	-9749
▁싹	-9750
▁윤	-9751
곳에	-9752
리랑	-9753
사도	-9754
와도	-9755
음파	-9756
져야	-9757
진이	-9758
카와	-9759
bab	-9760
iet	-9761
ren	-9762
▁"/	-9763
▁가벼	-9764
▁계실	-9765
▁내보	-9766
▁대리	-9767
▁대박	-9768
▁들과	-9769
▁들지	-9770
▁마셨	-9771
▁불꽃	-9772
▁산을	-9773
▁세포	-9774
▁속의	-9775
▁안고	-9776
▁양이	-9777
▁잊고	-9778
▁자르	-9779
▁잡은	-9780
▁클립	-9781
랬어요	-9782
었으면	-9783
해야만	-9784
reak	-9785
time	-9786
ween	-9787
▁기사를	-9788
▁되었다	-9789
▁믿어야	-9790
▁살아요	-9791
▁않았고	-9792
▁어땠어	-9793
▁언제든	-9794
▁여성을	-9795
▁이메일	-9796
▁이상은	-9797
▁이용해	-9798
▁익사케	-9799
▁저녁에	-9800
▁해봐야	-9801
▁했느뇨	-9802
▁exec	-9803
▁such	-9804
▁돌아가고	-9805
▁말해주지	-9806
▁목소리가	-9807
▁비유하사	-9808
▁어리석은	-9809
▁일어나지	-9810
resent	-9811
▁있으니까요	-9812
▁하나님에게	-9813
▁father	-9814
▁please	-9815
▁system	-9816
EO	-9817
ps	-9818
▁쟁	-9819
꾸나	-9820
다녔	-9821
안을	-9822
안이	-9823
였나	-9824
오나	-9825
인에	-9826
크에	-9827
틀린	-9828
해가	-9829
히도	-9830
▁Mm	-9831
▁Pr	-9832
▁고백	-9833
▁귀신	-9834
▁기쁜	-9835
▁되길	-9836
▁묶여	-9837
▁박살	-9838
▁벗겨	-9839
▁벽을	-9840
▁변태	-9841
▁불길	-9842
▁비극	-9843
▁시드	-9844
▁신비	-9845
▁악화	-9846
▁유효	-9847
▁재촉	-9848
▁제리	-9849
▁제지	-9850
▁죄가	-9851
▁클래	-9852
▁하다	-9853
▁확대	-9854
하라는	-9855
atus	-9856
ense	-9857
play	-9858
▁거겠지	-9859
▁거기로	-9860
▁귀찮게	-9861
▁그렇다	-9862
▁데이빗	-9863
▁마술에	-9864
▁메모리	-9865
▁메세지	-9866
▁미국의	-9867
▁바란다	-9868
▁아시고	-9869
▁아시아	-9870
▁알겠나	-9871
▁알려진	-9872
▁오라고	-9873
▁지냈어	-9874
▁천국의	-9875
▁총알이	-9876
▁케프너	-9877
▁하다니	-9878
▁형제를	-9879
egion	-9880
▁내버려둬	-9881
▁말씀드리	-9882
▁업데이트	-9883
▁예증으로	-9884
▁이제부터	-9885
▁진지하게	-9886
▁파라오가	-9887
▁확실해요	-9888
▁Maybe	-9889
▁directory	-9890
▁everything	-9891
▁짤	-9892
름이	-9893
면에	-9894
씨를	-9895
오지	-9896
지역	-9897
타민	-9898
://	-9899
iew	-9900
▁구한	-9901
▁니네	-9902
▁딸은	-9903
▁리차	-9904
▁많고	-9905
▁몇년	-9906
▁몰려	-9907
▁배달	-9908
▁비싼	-9909
▁비키	-9910
▁살지	-9911
▁선언	-9912
▁소파	-9913
▁예외	-9914
▁유죄	-9915
▁잊을	-9916
▁조만	-9917
▁줘서	-9918
▁처치	-9919
▁폭파	-9920
▁피트	-9921
거잖아	-9922
되나니	-9923
우리가	-9924
으로도	-9925
ason	-9926
▁car	-9927
▁가끔씩	-9928
▁계시니	-9929
▁됐는데	-9930
▁드리죠	-9931
▁때로는	-9932
▁먹으러	-9933
▁무서웠	-9934
▁상상도	-9935
▁없겠지	-9936
▁있을때	-9937
▁재앙을	-9938
▁죽었다	-9939
▁친구로	-9940
▁들여보내	-9941
▁바보같은	-9942
▁여자들은	-9943
▁있는거지	-9944
하셨습니다	-9945
▁되었습니다	-9946
▁아브라함과	-9947
▁할아버지가	-9948
▁랭	-9949
▁쳤	-9950
▁춥	-9951
모님	-9952
와요	-9953
자구	-9954
편에	-9955
호가	-9956
off	-9957
▁Im	-9958
▁가죽	-9959
▁글렌	-9960
▁놀고	-9961
▁단념	-9962
▁대고	-9963
▁동정	-9964
▁불태	-9965
▁소속	-9966
▁스미	-9967
▁시신	-9968
▁신혼	-9969
▁이란	-9970
▁저번	-9971
▁절차	-9972
▁캐시	-9973
▁코트	-9974
▁하든	-9975
▁한국	-9976
거니까	-9977
까지도	-9978
었네요	-9979
이시여	-9980
▁mar	-9981
▁가졌던	-9982
▁거리에	-9983
▁교수님	-9984
▁금지된	-9985
▁말대로	-9986
▁사건의	-9987
▁상처가	-9988
▁선택된	-9989
▁싸움을	-9990
▁얘기야	-9991
▁엘리스	-9992
▁있었네	-9993
▁프로세	-9994
▁허락을	-9995
하시노라	-9996
atomy	-9997
▁cour	-9998
▁그래야지	-9999
▁누구세요	-10000
▁비밀번호	-10001
▁사랑하고	-10002
▁상황에서	-10003
▁신경쓰지	-10004
▁아니더뇨	-10005
▁이전에도	-10006
▁잘못이야	-10007
▁크리스틴	-10008
▁현장에서	-10009
해야합니다	-10010
▁fbsql	-10011
▁mysql	-10012
▁require	-10013
▁resource	-10014
CI	-10015
ik	-10016
ts	-10017
▁냅	-10018
▁넬	-10019
▁째	-10020
▁쫄	-10021
▁텔	-10022
▁휠	-10023
마가	-10024
좋은	-10025
진다	-10026
질러	-10027
ets	-10028
▁ac	-10029
▁내고	-10030
▁너만	-10031
▁넘는	-10032
▁됐을	-10033
▁리즈	-10034
▁면역	-10035
▁바란	-10036
▁법칙	-10037
▁보셨	-10038
▁살레	-10039
▁삼키	-10040
▁손은	-10041
▁이벤	-10042
▁잡지	-10043
▁잤어	-10044
▁점이	-10045
▁챔피	-10046
▁체류	-10047
▁크나	-10048
▁크로	-10049
▁태아	-10050
▁풀려	-10051
▁합류	-10052
▁합병	-10053
▁협력	-10054
▁협상	-10055
관에서	-10056
기까지	-10057
니스터	-10058
어버릴	-10059
인들은	-10060
페이스	-10061
했나니	-10062
회에서	-10063
anna	-10064
less	-10065
▁CVS	-10066
▁dom	-10067
▁mod	-10068
▁가는데	-10069
▁가지는	-10070
▁갈아입	-10071
▁거리를	-10072
▁것인지	-10073
▁꼬마야	-10074
▁나가게	-10075
▁남자랑	-10076
▁모이게	-10077
▁받아요	-10078
▁봤다고	-10079
▁비밀로	-10080
▁사진이	-10081
▁순간이	-10082
▁신선한	-10083
▁안전을	-10084
▁않으셨	-10085
▁욕망을	-10086
▁정의를	-10087
▁주시니	-10088
▁줄리아	-10089
▁지내고	-10090
다면서요	-10091
▁pers	-10092
▁당신들을	-10093
▁돌아와서	-10094
▁말하도다	-10095
▁말했더라	-10096
▁미안하네	-10097
▁보호자가	-10098
▁보호하여	-10099
▁손가락을	-10100
▁시작했어	-10101
▁안된다고	-10102
▁않으리라	-10103
▁정하여진	-10104
▁정확하게	-10105
▁죽여버릴	-10106
▁축하해요	-10107
▁필요하다고	-10108
6,	-10109
ms	-10110
석이	-10111
슨이	-10112
아무	-10113
치료	-10114
▁개선	-10115
▁구출	-10116
▁국경	-10117
▁귀가	-10118
▁되며	-10119
▁뚱뚱	-10120
▁리는	-10121
▁아야	-10122
▁와봐	-10123
▁적의	-10124
▁파멸	-10125
▁헤드	-10126
놨어요	-10127
면서요	-10128
번이나	-10129
시네요	-10130
자라고	-10131
ATOR	-10132
quer	-10133
▁가슴이	-10134
▁그곳은	-10135
▁기능을	-10136
▁대답해	-10137
▁살인을	-10138
▁새끼가	-10139
▁섹시한	-10140
▁시체가	-10141
▁신들을	-10142
▁있구나	-10143
▁장소를	-10144
▁풍성한	-10145
ither	-10146
▁many	-10147
▁vous	-10148
▁week	-10149
▁같았어요	-10150
▁그럼에도	-10151
▁데이터를	-10152
▁보냈어요	-10153
▁인도하는	-10154
▁파라오와	-10155
▁const	-10156
▁wrong	-10157
▁access	-10158
▁believe	-10159
▁between	-10160
(*	-10161
▁벼	-10162
▁푼	-10163
그런	-10164
렸고	-10165
를린	-10166
우를	-10167
일지	-10168
자이	-10169
주셨	-10170
채로	-10171
The	-10172
▁//	-10173
▁계좌	-10174
▁과수	-10175
▁극복	-10176
▁때나	-10177
▁로라	-10178
▁마운	-10179
▁마저	-10180
▁맞고	-10181
▁밝은	-10182
▁밤과	-10183
▁벗고	-10184
▁빌딩	-10185
▁암컷	-10186
▁양의	-10187
▁자로	-10188
▁짐작	-10189
▁탄생	-10190
년이나	-10191
더구나	-10192
atic	-10193
rypt	-10194
▁det	-10195
▁hey	-10196
▁겁쟁이	-10197
▁계속해	-10198
▁배고파	-10199
▁베풀지	-10200
▁복음의	-10201
▁사생활	-10202
▁상황은	-10203
▁스카이	-10204
▁스포츠	-10205
▁않았던	-10206
▁없거든	-10207
▁율법을	-10208
▁이르러	-10209
▁했거든	-10210
press	-10211
▁계시나니	-10212
▁누군가의	-10213
▁불가능해	-10214
▁사라지고	-10215
▁유용하지	-10216
▁있었다는	-10217
▁자신들을	-10218
▁doesn	-10219
▁사무실에서	-10220
▁있을거에요	-10221
▁associ	-10222
40	-10223
ON	-10224
PD	-10225
dy	-10226
sc	-10227
▁멘	-10228
▁었	-10229
▁쟨	-10230
다오	-10231
단계	-10232
미는	-10233
술이	-10234
알아	-10235
이래	-10236
주길	-10237
POS	-10238
anc	-10239
arm	-10240
pos	-10241
▁pg	-10242
▁sl	-10243
▁과장	-10244
▁날개	-10245
▁마비	-10246
▁민간	-10247
▁밋첼	-10248
▁보드	-10249
▁본능	-10250
▁빨아	-10251
▁승인	-10252
▁시청	-10253
▁써요	-10254
▁씨를	-10255
▁왠지	-10256
▁읽는	-10257
▁자막	-10258
▁진통	-10259
▁쪽이	-10260
▁추수	-10261
▁축구	-10262
▁충전	-10263
▁치는	-10264
▁코카	-10265
▁퇴근	-10266
▁포로	-10267
▁하겠	-10268
ngth	-10269
outh	-10270
rist	-10271
▁ele	-10272
▁가혹한	-10273
▁구멍을	-10274
▁나가지	-10275
▁나처럼	-10276
▁너처럼	-10277
▁놈이야	-10278
▁단순히	-10279
▁당신에	-10280
▁도시의	-10281
▁떠나고	-10282
▁뛰어내	-10283
▁뜻이죠	-10284
▁보기엔	-10285
▁부드럽	-10286
▁사라질	-10287
▁사랑의	-10288
▁살면서	-10289
▁순간에	-10290
▁승리라	-10291
▁얘기도	-10292
▁의사를	-10293
▁이곳을	-10294
▁충분해	-10295
▁하늘의	-10296
▁현명한	-10297
vious	-10298
▁APOS	-10299
▁가야겠어	-10300
▁그런거야	-10301
▁되잖아요	-10302
▁맞았어요	-10303
▁받으소서	-10304
▁안전하지	-10305
▁죽였어요	-10306
▁포기하지	-10307
▁table	-10308
▁말했잖아요	-10309
▁못했습니다	-10310
▁하나님만을	-10311
▁텐	-10312
기록	-10313
다리	-10314
상한	-10315
있던	-10316
즈를	-10317
▁48	-10318
▁Pl	-10319
▁각하	-10320
▁고급	-10321
▁둘째	-10322
▁로저	-10323
▁로컬	-10324
▁밧줄	-10325
▁보인	-10326
▁분야	-10327
▁비참	-10328
▁소린	-10329
▁신세	-10330
▁아델	-10331
▁예측	-10332
▁요소	-10333
▁이뤄	-10334
▁입장	-10335
▁정착	-10336
▁쪽에	-10337
▁포위	-10338
았는데	-10339
있었어	-10340
하기에	-10341
했으며	-10342
ical	-10343
▁Man	-10344
▁pos	-10345
▁rem	-10346
▁금요일	-10347
▁났어요	-10348
▁단어를	-10349
▁두개골	-10350
▁삼촌이	-10351
▁상자를	-10352
▁싫다고	-10353
▁알아듣	-10354
▁없었을	-10355
▁여기를	-10356
▁이라고	-10357
▁있다구	-10358
▁작년에	-10359
▁제안을	-10360
▁토요일	-10361
▁했었지	-10362
▁care	-10363
▁most	-10364
▁말씀하사	-10365
▁선생님을	-10366
▁아니거늘	-10367
▁않았지만	-10368
▁위해서요	-10369
▁회개하고	-10370
▁whole	-10371
▁표시합니다	-10372
▁객	-10373
과를	-10374
난다	-10375
들지	-10376
실은	-10377
어는	-10378
원과	-10379
작용	-10380
저나	-10381
학자	-10382
ape	-10383
▁거나	-10384
▁끌려	-10385
▁느낀	-10386
▁도살	-10387
▁마티	-10388
▁명은	-10389
▁무의	-10390
▁뭘요	-10391
▁미팅	-10392
▁번에	-10393
▁변환	-10394
▁보물	-10395
▁부대	-10396
▁사형	-10397
▁살기	-10398
▁석션	-10399
▁성을	-10400
▁쓰기	-10401
▁쓸데	-10402
▁없으	-10403
▁연애	-10404
▁음을	-10405
▁의한	-10406
▁잠수	-10407
▁장갑	-10408
▁좌절	-10409
▁주저	-10410
▁찾게	-10411
▁최종	-10412
▁칼리	-10413
▁투명	-10414
▁학살	-10415
▁항해	-10416
려구요	-10417
력으로	-10418
으려는	-10419
하였다	-10420
utes	-10421
▁XML	-10422
▁ain	-10423
▁que	-10424
▁구하라	-10425
▁나오면	-10426
▁닥치고	-10427
▁대지와	-10428
▁방향을	-10429
▁부분이	-10430
▁수있는	-10431
▁없군요	-10432
▁여성의	-10433
▁오른손	-10434
▁전체가	-10435
▁젊은이	-10436
▁조금씩	-10437
▁진리와	-10438
▁케이지	-10439
▁피바디	-10440
▁해주는	-10441
▁해주지	-10442
하신다면	-10443
▁두었노라	-10444
▁무엇인가	-10445
▁에이프릴	-10446
▁자유롭게	-10447
▁주시니라	-10448
attern	-10449
▁fight	-10450
▁another	-10451
▁identifier	-10452
pi	-10453
▁\	-10454
▁뮤	-10455
나지	-10456
느니	-10457
달라	-10458
마를	-10459
오기	-10460
주라	-10461
테이	-10462
포드	-10463
향이	-10464
ork	-10465
▁그루	-10466
▁긍정	-10467
▁낮추	-10468
▁니콜	-10469
▁다친	-10470
▁말콤	-10471
▁무익	-10472
▁베르	-10473
▁빠지	-10474
▁빠질	-10475
▁시장	-10476
▁실현	-10477
▁얻는	-10478
▁여친	-10479
▁오바	-10480
▁원본	-10481
▁위를	-10482
▁창을	-10483
▁캐스	-10484
▁헤더	-10485
▁환각	-10486
▁휴식	-10487
거라는	-10488
들보다	-10489
원들이	-10490
하셨죠	-10491
file	-10492
▁Ooh	-10493
▁갔는데	-10494
▁나아질	-10495
▁너회는	-10496
▁뒤집어	-10497
▁따뜻한	-10498
▁로버트	-10499
▁모세와	-10500
▁목록을	-10501
▁배고프	-10502
▁변화를	-10503
▁사이가	-10504
▁생활을	-10505
▁아니까	-10506
▁안좋은	-10507
▁우리집	-10508
▁우주의	-10509
▁이들과	-10510
▁있구요	-10511
▁있어라	-10512
▁잘못을	-10513
▁정확한	-10514
▁하던데	-10515
▁하찮은	-10516
▁항목을	-10517
▁Lord	-10518
▁경우에는	-10519
▁그에게는	-10520
▁남자들은	-10521
▁병원으로	-10522
▁이해해요	-10523
▁했거든요	-10524
▁leave	-10525
▁three	-10526
▁만들었어요	-10527
▁Please	-10528
▁Anatomy	-10529
▁subject	-10530
▁쿨	-10531
▁펴	-10532
대고	-10533
왔지	-10534
통에	-10535
한자	-10536
합을	-10537
회는	-10538
▁Je	-10539
▁sn	-10540
▁고개	-10541
▁공기	-10542
▁공산	-10543
▁남기	-10544
▁넘게	-10545
▁모건	-10546
▁뭐에	-10547
▁베트	-10548
▁복용	-10549
▁분열	-10550
▁불쾌	-10551
▁수동	-10552
▁오전	-10553
▁우롱	-10554
▁울고	-10555
▁이쁜	-10556
▁인질	-10557
▁점을	-10558
▁조엘	-10559
▁존스	-10560
▁주로	-10561
▁지겨	-10562
▁찰스	-10563
▁크리	-10564
▁터질	-10565
▁틀린	-10566
주소서	-10567
ying	-10568
▁lot	-10569
▁끝나는	-10570
▁나오지	-10571
▁말해줬	-10572
▁믿으라	-10573
▁버크가	-10574
▁애리조	-10575
▁없단다	-10576
▁에리카	-10577
▁잘하는	-10578
▁축복이	-10579
▁클라이	-10580
▁파일에	-10581
▁하나씩	-10582
▁하다가	-10583
▁혼자가	-10584
ffect	-10585
▁hold	-10586
▁노력하고	-10587
▁돌아가지	-10588
▁돌아오면	-10589
▁부정하는	-10590
▁불구하고	-10591
▁실천하는	-10592
▁아무데도	-10593
▁아시겠죠	-10594
▁언제까지	-10595
▁언제든지	-10596
▁없었노라	-10597
▁없었다면	-10598
▁죽어가고	-10599
▁무엇입니까	-10600
▁trying	-10601
fe	-10602
▁둥	-10603
▁뵈	-10604
▁쫒	-10605
경찰	-10606
드류	-10607
말도	-10608
베이	-10609
조건	-10610
주마	-10611
회가	-10612
ead	-10613
ger	-10614
php	-10615
▁가볍	-10616
▁간호	-10617
▁경감	-10618
▁기어	-10619
▁달이	-10620
▁따위	-10621
▁때에	-10622
▁메디	-10623
▁민주	-10624
▁보트	-10625
▁복구	-10626
▁봉사	-10627
▁불의	-10628
▁소방	-10629
▁신념	-10630
▁여는	-10631
▁왕비	-10632
▁우는	-10633
▁웃고	-10634
▁잊어	-10635
▁자애	-10636
▁창고	-10637
▁코치	-10638
▁함을	-10639
외과의	-10640
이고요	-10641
했네요	-10642
했느뇨	-10643
ause	-10644
▁Did	-10645
▁가시죠	-10646
▁궁금한	-10647
▁기본값	-10648
▁누구의	-10649
▁대동맥	-10650
▁되겠어	-10651
▁되니까	-10652
▁말한다	-10653
▁믿으며	-10654
▁신경을	-10655
▁아니며	-10656
▁않다는	-10657
▁알아봐	-10658
▁원하셨	-10659
▁잃었어	-10660
▁자비가	-10661
▁흥미롭	-10662
▁그리고는	-10663
▁들어와요	-10664
▁받아들일	-10665
▁벗어나게	-10666
▁보여주는	-10667
▁사랑한다	-10668
▁위험해요	-10669
▁정말이지	-10670
▁group	-10671
connect	-10672
▁모르겠습니다	-10673
▁optional	-10674
▁녀	-10675
가로	-10676
그네	-10677
금은	-10678
다간	-10679
러워	-10680
망이	-10681
필드	-10682
its	-10683
lor	-10684
▁가둬	-10685
▁광고	-10686
▁그릇	-10687
▁달에	-10688
▁대충	-10689
▁듯이	-10690
▁버틸	-10691
▁변수	-10692
▁브레	-10693
▁속옷	-10694
▁애비	-10695
▁올림	-10696
▁옮기	-10697
▁전역	-10698
▁절제	-10699
▁조차	-10700
▁주니	-10701
▁직전	-10702
▁진흙	-10703
▁청결	-10704
▁출산	-10705
▁학대	-10706
▁후로	-10707
▁힘내	-10708
들에겐	-10709
이었을	-10710
atch	-10711
ific	-10712
▁its	-10713
▁내게로	-10714
▁느끼고	-10715
▁되세요	-10716
▁문으로	-10717
▁바래요	-10718
▁부모가	-10719
▁브루스	-10720
▁살아야	-10721
▁성서와	-10722
▁않았나	-10723
▁에워싸	-10724
▁요셉이	-10725
▁원한다	-10726
▁은혜에	-10727
▁인코딩	-10728
▁있는가	-10729
▁전하고	-10730
▁줄래요	-10731
▁집어넣	-10732
▁천지에	-10733
▁친구도	-10734
▁했나요	-10735
하십니다	-10736
ussia	-10737
▁TRAN	-10738
▁가족에게	-10739
▁교훈이라	-10740
▁그렇겠죠	-10741
▁끝내주는	-10742
▁멸망시켰	-10743
▁보여주고	-10744
▁부끄러운	-10745
▁이번에는	-10746
▁일반적인	-10747
▁친구들을	-10748
▁오른쪽으로	-10749
▁family	-10750
▁발생했습니다	-10751
ID	-10752
by	-10753
▁땡	-10754
▁봄	-10755
▁샴	-10756
고마	-10757
사이	-10758
세포	-10759
아리	-10760
증에	-10761
unt	-10762
▁가동	-10763
▁공허	-10764
▁굴지	-10765
▁노트	-10766
▁단체	-10767
▁되서	-10768
▁미행	-10769
▁시련	-10770
▁쓰여	-10771
▁안경	-10772
▁애인	-10773
▁오리	-10774
▁적혀	-10775
▁제인	-10776
▁초록	-10777
▁출동	-10778
▁푸른	-10779
거리가	-10780
냐고요	-10781
선생님	-10782
어떻게	-10783
였잖아	-10784
인지는	-10785
했었지	-10786
형외과	-10787
line	-10788
▁Cam	-10789
▁guy	-10790
▁sur	-10791
▁감정이	-10792
▁것이오	-10793
▁공동체	-10794
▁그대에	-10795
▁날개를	-10796
▁땅에서	-10797
▁말했을	-10798
▁맹세하	-10799
▁않겠지	-10800
▁오류가	-10801
▁왔구나	-10802
▁있을게	-10803
▁처음에	-10804
▁폭탄을	-10805
▁하거나	-10806
▁하기로	-10807
ATORS	-10808
illed	-10809
▁next	-10810
▁sets	-10811
▁베일리가	-10812
▁선지자의	-10813
▁성전하는	-10814
▁엉덩이를	-10815
▁용서하여	-10816
gether	-10817
member	-10818
▁inter	-10819
▁진정하세요	-10820
SLATORS	-10821
▁coming	-10822
▁window	-10823
▁TRANSLATORS	-10824
▁깡	-10825
▁꺾	-10826
▁랩	-10827
▁팩	-10828
년의	-10829
놈이	-10830
막을	-10831
봐라	-10832
세의	-10833
스틴	-10834
주실	-10835
틀러	-10836
par	-10837
▁El	-10838
▁감지	-10839
▁같고	-10840
▁그야	-10841
▁깔끔	-10842
▁난리	-10843
▁내면	-10844
▁반란	-10845
▁설탕	-10846
▁숨길	-10847
▁심박	-10848
▁싱글	-10849
▁아홉	-10850
▁에어	-10851
▁연쇄	-10852
▁일해	-10853
▁지연	-10854
▁차트	-10855
▁채우	-10856
▁첫날	-10857
▁출전	-10858
▁커서	-10859
▁한단	-10860
는데도	-10861
파운드	-10862
itch	-10863
thod	-10864
▁4.3	-10865
▁dri	-10866
▁가야해	-10867
▁걸까요	-10868
▁걸렸어	-10869
▁괴물이	-10870
▁나님이	-10871
▁나라를	-10872
▁나무가	-10873
▁들었을	-10874
▁로빈스	-10875
▁마누라	-10876
▁무리의	-10877
▁부끄럽	-10878
▁부분은	-10879
▁사라지	-10880
▁살았어	-10881
▁악마가	-10882
▁안좋아	-10883
▁알아볼	-10884
▁엄마야	-10885
▁조만간	-10886
▁주려고	-10887
▁주시며	-10888
▁지혜가	-10889
▁챔피언	-10890
버렸어요	-10891
▁stay	-10892
▁turn	-10893
▁그러니깐	-10894
▁그럴게요	-10895
▁다행이야	-10896
▁무언가를	-10897
▁부탁이야	-10898
▁사라졌어	-10899
▁선지자께	-10900
▁시작하면	-10901
▁외과의사	-10902
▁우두머리	-10903
▁죄인들은	-10904
▁죄인들을	-10905
queror	-10906
▁files	-10907
▁깁	-10908
▁눕	-10909
▁몹	-10910
▁횡	-10911
군의	-10912
귀한	-10913
돼서	-10914
▁계셔	-10915
▁고치	-10916
▁공공	-10917
▁공정	-10918
▁구약	-10919
▁귀머	-10920
▁깊게	-10921
▁나나	-10922
▁많을	-10923
▁몫을	-10924
▁스머	-10925
▁어지	-10926
▁여덟	-10927
▁위장	-10928
▁윈터	-10929
▁은헤	-10930
▁이며	-10931
▁이쁘	-10932
▁있노	-10933
▁저래	-10934
▁제군	-10935
▁케일	-10936
▁키우	-10937
▁토레	-10938
▁편히	-10939
으시죠	-10940
anny	-10941
▁DPI	-10942
▁Mar	-10943
▁One	-10944
▁기회는	-10945
▁내일은	-10946
▁말할게	-10947
▁목적을	-10948
▁박사가	-10949
▁베푸시	-10950
▁살인범	-10951
▁식사를	-10952
▁쌍둥이	-10953
▁오후에	-10954
▁이르길	-10955
▁인사를	-10956
▁일부가	-10957
▁임무는	-10958
▁자손이	-10959
▁제이콥	-10960
▁지나간	-10961
▁쳐다보	-10962
▁크나큰	-10963
▁텐데요	-10964
▁트위터	-10965
▁파이프	-10966
▁했어야	-10967
었잖아요	-10968
중입니다	-10969
▁bang	-10970
▁prov	-10971
▁누구라도	-10972
▁돌아가셨	-10973
▁돌아가신	-10974
▁슬퍼하지	-10975
▁저녁으로	-10976
▁주님이신	-10977
▁while	-10978
▁못하겠어요	-10979
▁불과하니라	-10980
▁talking	-10981
LL	-10982
▁령	-10983
것같	-10984
마귀	-10985
버거	-10986
브로	-10987
사고	-10988
서로	-10989
aut	-10990
med	-10991
raw	-10992
▁나름	-10993
▁로켓	-10994
▁만에	-10995
▁말자	-10996
▁먹이	-10997
▁메스	-10998
▁문화	-10999
▁미끼	-11000
▁보네	-11001
▁알어	-11002
▁잡히	-11003
▁저울	-11004
▁착각	-11005
▁처녀	-11006
▁포트	-11007
▁형을	-11008
겼어요	-11009
리스는	-11010
시간이	-11011
▁나라면	-11012
▁나와요	-11013
▁내리지	-11014
▁돈으로	-11015
▁따르고	-11016
▁레이첼	-11017
▁바라지	-11018
▁병원을	-11019
▁부름에	-11020
▁사기꾼	-11021
▁장난감	-11022
▁저희도	-11023
▁정신차	-11024
▁조사를	-11025
▁프레스	-11026
▁하라는	-11027
들에게는	-11028
arent	-11029
▁King	-11030
▁both	-11031
▁거였어요	-11032
▁그곳에는	-11033
▁되는거야	-11034
▁레스토랑	-11035
▁반환한다	-11036
▁사이에서	-11037
▁아닌데요	-11038
▁아시노라	-11039
▁여러분을	-11040
▁축복받은	-11041
▁creat	-11042
▁wanted	-11043
.)	-11044
▁란	-11045
다녀	-11046
러리	-11047
르크	-11048
림을	-11049
보가	-11050
성의	-11051
야할	-11052
주게	-11053
not	-11054
rew	-11055
▁uh	-11056
▁갈색	-11057
▁강조	-11058
▁관대	-11059
▁그딴	-11060
▁그쵸	-11061
▁기소	-11062
▁너나	-11063
▁놓을	-11064
▁다윗	-11065
▁밖엔	-11066
▁부동	-11067
▁빚을	-11068
▁상의	-11069
▁셰퍼	-11070
▁수수	-11071
▁시나	-11072
▁신원	-11073
▁신장	-11074
▁싸이	-11075
▁써서	-11076
▁염소	-11077
▁용지	-11078
▁웨인	-11079
▁정복	-11080
▁질러	-11081
▁질병	-11082
▁짓이	-11083
▁철수	-11084
▁테고	-11085
▁편에	-11086
▁한편	-11087
포니아	-11088
했을때	-11089
ches	-11090
ntil	-11091
ored	-11092
orth	-11093
▁Jay	-11094
▁것이고	-11095
▁그대와	-11096
▁그안에	-11097
▁나가고	-11098
▁당장은	-11099
▁도움도	-11100
▁똑같아	-11101
▁만나면	-11102
▁말하게	-11103
▁물건이	-11104
▁보살펴	-11105
▁어디든	-11106
▁원숭이	-11107
▁위치로	-11108
▁의하면	-11109
▁있대요	-11110
▁주의를	-11111
▁지하실	-11112
▁찾아낼	-11113
▁태양과	-11114
▁피해자	-11115
▁한번만	-11116
이었다고	-11117
했다고요	-11118
▁sing	-11119
▁고맙지만	-11120
▁그래서요	-11121
▁뿐이라고	-11122
▁싶어하는	-11123
▁잘했어요	-11124
▁가져왔어요	-11125
▁메러디스가	-11126
▁시작했어요	-11127
▁아시잖아요	-11128
'?	-11129
db	-11130
ma	-11131
▁<	-11132
▁쥬	-11133
▁짊	-11134
군을	-11135
버스	-11136
보네	-11137
타고	-11138
행이	-11139
cur	-11140
hes	-11141
▁Bl	-11142
▁규정	-11143
▁그중	-11144
▁금속	-11145
▁까먹	-11146
▁끼워	-11147
▁려워	-11148
▁볼게	-11149
▁비트	-11150
▁빠뜨	-11151
▁수신	-11152
▁시골	-11153
▁신중	-11154
▁쓰면	-11155
▁애도	-11156
▁열정	-11157
▁정체	-11158
▁진단	-11159
▁찍고	-11160
▁할로	-11161
▁핵심	-11162
▁화해	-11163
될거야	-11164
셨으니	-11165
준다고	-11166
wise	-11167
▁Cal	-11168
▁기술을	-11169
▁도시에	-11170
▁레너드	-11171
▁마스터	-11172
▁만났어	-11173
▁만났을	-11174
▁말씀과	-11175
▁문서를	-11176
▁비밀이	-11177
▁숭배한	-11178
▁아무나	-11179
▁여자들	-11180
▁열쇠를	-11181
▁인류를	-11182
▁자보다	-11183
▁지식이	-11184
▁찾았다	-11185
▁하지도	-11186
▁fail	-11187
▁sign	-11188
▁가르시아	-11189
▁들어가라	-11190
▁들으시고	-11191
▁디렉터리	-11192
▁라니스터	-11193
▁알렉스가	-11194
▁Hello	-11195
▁music	-11196
▁years	-11197
▁대답하더라	-11198
▁들었습니다	-11199
▁받았습니다	-11200
▁엘리자베스	-11201
OM	-11202
oe	-11203
of	-11204
거래	-11205
거워	-11206
교도	-11207
그녀	-11208
러스	-11209
물에	-11210
슬러	-11211
자민	-11212
tes	-11213
▁감싸	-11214
▁겪고	-11215
▁귀속	-11216
▁남는	-11217
▁냉장	-11218
▁넣을	-11219
▁노릇	-11220
▁데릴	-11221
▁돌고	-11222
▁되네	-11223
▁막대	-11224
▁못생	-11225
▁바뀔	-11226
▁복도	-11227
▁빅터	-11228
▁스코	-11229
▁시저	-11230
▁식을	-11231
▁의존	-11232
▁읽기	-11233
▁지참	-11234
▁추출	-11235
▁혼돈	-11236
드려야	-11237
oice	-11238
▁Any	-11239
▁cam	-11240
▁dep	-11241
▁곳이라	-11242
▁권리를	-11243
▁그때는	-11244
▁그랬을	-11245
▁들었다	-11246
▁마을에	-11247
▁벗어난	-11248
▁베를린	-11249
▁보안관	-11250
▁생명이	-11251
▁싫으면	-11252
▁아버님	-11253
▁어쨋든	-11254
▁요원이	-11255
▁운명이	-11256
▁의원님	-11257
▁자식아	-11258
▁자식을	-11259
▁장례식	-11260
▁주말에	-11261
▁진리라	-11262
▁초음파	-11263
▁최고야	-11264
▁클리닉	-11265
▁하워드	-11266
▁화이트	-11267
▁가족들이	-11268
▁두려움을	-11269
▁떨어지고	-11270
▁만들어야	-11271
▁무서워요	-11272
▁없거든요	-11273
▁한다고요	-11274
▁기본적으로	-11275
▁누르십시오	-11276
▁들어오세요	-11277
-4	-11278
OT	-11279
▁닐	-11280
▁랑	-11281
▁촌	-11282
▁퀼	-11283
가능	-11284
거냐	-11285
라의	-11286
람사	-11287
로요	-11288
발이	-11289
세한	-11290
음에	-11291
전화	-11292
키가	-11293
타이	-11294
ady	-11295
cHB	-11296
ens	-11297
▁가상	-11298
▁같진	-11299
▁거북	-11300
▁걷고	-11301
▁공화	-11302
▁낙하	-11303
▁놔줘	-11304
▁닫기	-11305
▁대응	-11306
▁따윈	-11307
▁땜에	-11308
▁마땅	-11309
▁먹자	-11310
▁분류	-11311
▁상실	-11312
▁센터	-11313
▁열린	-11314
▁울지	-11315
▁지저	-11316
▁풍요	-11317
▁프랜	-11318
렸는데	-11319
렸다고	-11320
버리지	-11321
였다면	-11322
자리에	-11323
해지는	-11324
cept	-11325
ighs	-11326
iver	-11327
▁결정할	-11328
▁다르지	-11329
▁대위님	-11330
▁도저히	-11331
▁또다른	-11332
▁루시어	-11333
▁말아야	-11334
▁머리는	-11335
▁미사일	-11336
▁받으면	-11337
▁벌어진	-11338
▁브라운	-11339
▁설정할	-11340
▁섬기는	-11341
▁스노우	-11342
▁영웅이	-11343
▁올거야	-11344
▁와이프	-11345
▁장군님	-11346
▁저기서	-11347
▁주변의	-11348
▁초콜릿	-11349
▁해야죠	-11350
▁훌륭해	-11351
았습니다	-11352
▁그녀들을	-11353
▁돌아왔어	-11354
▁룸메이트	-11355
▁불신자들	-11356
▁요구하지	-11357
▁죄송한데	-11358
▁주시리라	-11359
erence	-11360
ternal	-11361
▁heart	-11362
▁query	-11363
▁말해주세요	-11364
▁아니했으며	-11365
▁찾았습니다	-11366
uration	-11367
▁module	-11368
▁꿨	-11369
▁립	-11370
▁맷	-11371
▁엮	-11372
▁쫌	-11373
갔지	-11374
구는	-11375
년아	-11376
누가	-11377
비언	-11378
았고	-11379
졌을	-11380
프리	-11381
oot	-11382
ote	-11383
raz	-11384
▁26	-11385
▁Ap	-11386
▁Hi	-11387
▁강철	-11388
▁검토	-11389
▁게을	-11390
▁놓은	-11391
▁망치	-11392
▁발라	-11393
▁베리	-11394
▁블록	-11395
▁뿐만	-11396
▁소름	-11397
▁왔나	-11398
▁외출	-11399
▁웃는	-11400
▁자제	-11401
▁캐피	-11402
당신이	-11403
신다면	-11404
ator	-11405
▁00:	-11406
▁같았어	-11407
▁거란다	-11408
▁권한을	-11409
▁그놈이	-11410
▁그런건	-11411
▁돌리는	-11412
▁디렉토	-11413
▁로맨틱	-11414
▁말고요	-11415
▁말일세	-11416
▁모세야	-11417
▁무고한	-11418
▁시간도	-11419
▁앗아가	-11420
▁애초에	-11421
▁없어도	-11422
▁위해선	-11423
▁자체가	-11424
▁정부는	-11425
▁좋아서	-11426
▁죽여야	-11427
▁질문은	-11428
▁하고요	-11429
▁한동안	-11430
▁형제가	-11431
▁poss	-11432
▁그나저나	-11433
▁말했듯이	-11434
▁앉으세요	-11435
▁않았다고	-11436
▁어디까지	-11437
▁없는데요	-11438
▁있겠지만	-11439
▁전까지는	-11440
▁준비하고	-11441
▁창조하사	-11442
▁사람이라고	-11443
▁준비됐어요	-11444
▁진실이라면	-11445
▁창조하시고	-11446
listbox	-11447
▁inlistbox	-11448
▁characters	-11449
yp	-11450
▁됩	-11451
▁썅	-11452
▁팁	-11453
갈피	-11454
남자	-11455
다지	-11456
당에	-11457
도와	-11458
만요	-11459
생을	-11460
수야	-11461
시험	-11462
식사	-11463
커가	-11464
팀이	-11465
파이	-11466
팔이	-11467
▁1%	-11468
▁36	-11469
▁je	-11470
▁경관	-11471
▁공장	-11472
▁그늘	-11473
▁단독	-11474
▁덤벼	-11475
▁무대	-11476
▁바랬	-11477
▁배로	-11478
▁벨라	-11479
▁보존	-11480
▁브룩	-11481
▁스톤	-11482
▁스프	-11483
▁습격	-11484
▁신용	-11485
▁싫다	-11486
▁연속	-11487
▁전공	-11488
▁절친	-11489
▁좋군	-11490
▁지점	-11491
▁치킨	-11492
▁컬러	-11493
▁탑승	-11494
▁행사	-11495
▁현상	-11496
▁황금	-11497
다는게	-11498
되었고	-11499
중에서	-11500
▁dec	-11501
▁가라앉	-11502
▁가방을	-11503
▁걱정은	-11504
▁계획에	-11505
▁그러길	-11506
▁나타날	-11507
▁다물어	-11508
▁드러내	-11509
▁들으면	-11510
▁말로가	-11511
▁말해도	-11512
▁사적인	-11513
▁시카고	-11514
▁십자가	-11515
▁알리프	-11516
▁우연히	-11517
▁위치에	-11518
▁인생에	-11519
▁즐겁게	-11520
▁진실이	-11521
▁최선의	-11522
▁클리어	-11523
▁하나야	-11524
▁한계를	-11525
▁행하였	-11526
야겠어요	-11527
FFFFF	-11528
array	-11529
▁each	-11530
▁말았어야	-11531
▁방황하고	-11532
▁사용하여	-11533
▁안했어요	-11534
▁어디에서	-11535
▁그분이시라	-11536
▁enough	-11537
cHBFFFFF	-11538
▁content	-11539
8,	-11540
gg	-11541
py	-11542
▁덧	-11543
가게	-11544
그의	-11545
너라	-11546
렀을	-11547
변을	-11548
않아	-11549
이들	-11550
테고	-11551
피트	-11552
함도	-11553
opy	-11554
ush	-11555
▁3.	-11556
▁거길	-11557
▁경호	-11558
▁과연	-11559
▁노는	-11560
▁뇌가	-11561
▁다닐	-11562
▁달고	-11563
▁댄스	-11564
▁딜런	-11565
▁말려	-11566
▁맡고	-11567
▁무관	-11568
▁무전	-11569
▁봉쇄	-11570
▁세운	-11571
▁속임	-11572
▁쇼를	-11573
▁씨의	-11574
▁어쩜	-11575
▁얼어	-11576
▁있겠	-11577
▁재수	-11578
▁즐길	-11579
▁찢어	-11580
▁축적	-11581
▁치우	-11582
▁특정	-11583
▁틀어	-11584
▁허리	-11585
되니라	-11586
선으로	-11587
소리가	-11588
줄거야	-11589
▁120	-11590
▁est	-11591
▁걸리지	-11592
▁뭐가요	-11593
▁배워야	-11594
▁불행한	-11595
▁순수한	-11596
▁시도해	-11597
▁안해요	-11598
▁열매를	-11599
▁이번에	-11600
▁이지가	-11601
▁잘못한	-11602
▁장치를	-11603
▁저녁을	-11604
▁찬미를	-11605
▁확인할	-11606
하시네요	-11607
Cause	-11608
▁Grey	-11609
▁best	-11610
▁oper	-11611
▁감사하고	-11612
▁감사하라	-11613
▁기억하고	-11614
▁대다수가	-11615
▁멋지네요	-11616
▁솔직하게	-11617
▁않았는데	-11618
▁죄인들이	-11619
▁트레일러	-11620
▁names	-11621
▁사람입니다	-11622
AM	-11623
IS	-11624
▁엽	-11625
▁잎	-11626
▁첩	-11627
년대	-11628
뒀어	-11629
론이	-11630
마크	-11631
먹는	-11632
앞에	-11633
약이	-11634
오늘	-11635
일도	-11636
gin	-11637
ico	-11638
ilt	-11639
vil	-11640
▁교차	-11641
▁구매	-11642
▁꼴을	-11643
▁노란	-11644
▁등장	-11645
▁모으	-11646
▁방이	-11647
▁분께	-11648
▁사샤	-11649
▁서방	-11650
▁수염	-11651
▁연극	-11652
▁이분	-11653
▁작년	-11654
▁잔뜩	-11655
▁진동	-11656
▁충실	-11657
▁켈리	-11658
▁힘드	-11659
다면서	-11660
듭니다	-11661
소리를	-11662
오세요	-11663
하겠죠	-11664
ters	-11665
ward	-11666
▁Com	-11667
▁거리가	-11668
▁굉장한	-11669
▁규칙을	-11670
▁그녀도	-11671
▁느껴지	-11672
▁릴리가	-11673
▁명백한	-11674
▁미확인	-11675
▁바라고	-11676
▁복음이	-11677
▁상대가	-11678
▁없겠죠	-11679
▁여기도	-11680
▁영상을	-11681
▁왔다고	-11682
▁있거나	-11683
▁저쪽에	-11684
▁적당한	-11685
▁종말이	-11686
▁지난번	-11687
▁지내는	-11688
▁책갈피	-11689
▁하더군	-11690
▁후에는	-11691
▁흔적이	-11692
거라구요	-11693
cture	-11694
itten	-11695
▁tool	-11696
▁기다려봐	-11697
▁당신들의	-11698
▁들으심과	-11699
▁선조들도	-11700
▁순종하는	-11701
▁스크립트	-11702
▁시작하자	-11703
▁않겠다고	-11704
▁않았다는	-11705
▁알았다고	-11706
▁약속할게	-11707
▁원하는게	-11708
▁일입니다	-11709
▁지옥에서	-11710
▁house	-11711
▁설정합니다	-11712
▁있었으리라	-11713
▁brother	-11714
▁불신자들에게는	-11715
▁Konqueror	-11716
oi	-11717
▁깼	-11718
▁쑤	-11719
▁핏	-11720
디션	-11721
레나	-11722
려나	-11723
메리	-11724
석을	-11725
인것	-11726
저리	-11727
ini	-11728
▁거칠	-11729
▁경작	-11730
▁계란	-11731
▁고속	-11732
▁근거	-11733
▁끊임	-11734
▁내기	-11735
▁내에	-11736
▁놓친	-11737
▁병든	-11738
▁복원	-11739
▁쉬워	-11740
▁시킬	-11741
▁심문	-11742
▁심실	-11743
▁심해	-11744
▁야구	-11745
▁약이	-11746
▁열이	-11747
▁자긴	-11748
▁종족	-11749
▁주기	-11750
▁킹스	-11751
▁타워	-11752
▁희의	-11753
으로요	-11754
인거야	-11755
있으면	-11756
하였으	-11757
현지어	-11758
ants	-11759
load	-11760
▁같지만	-11761
▁과오를	-11762
▁그곳을	-11763
▁그만큼	-11764
▁기분은	-11765
▁노아의	-11766
▁다예요	-11767
▁뜻대로	-11768
▁맛보라	-11769
▁멈춰요	-11770
▁베이비	-11771
▁베트남	-11772
▁부정한	-11773
▁불리는	-11774
▁성서에	-11775
▁앨리샤	-11776
▁인류의	-11777
▁자기를	-11778
▁저기에	-11779
▁전하는	-11780
▁지나갈	-11781
▁지나면	-11782
▁평생을	-11783
▁하시죠	-11784
erent	-11785
stand	-11786
▁Like	-11787
▁full	-11788
▁사실대로	-11789
▁생각했죠	-11790
▁선지자는	-11791
▁않습니까	-11792
▁없다고요	-11793
▁에드워드	-11794
▁존재하는	-11795
uckles	-11796
▁하나님만이	-11797
▁Because	-11798
▁getting	-11799
▁룰	-11800
▁잇	-11801
▁홉	-11802
그라	-11803
르를	-11804
린을	-11805
발을	-11806
셨지	-11807
시한	-11808
위한	-11809
침을	-11810
카드	-11811
ias	-11812
ird	-11813
▁Of	-11814
▁cp	-11815
▁걔를	-11816
▁거에	-11817
▁공작	-11818
▁기를	-11819
▁나리	-11820
▁낮에	-11821
▁님이	-11822
▁두는	-11823
▁두사	-11824
▁롯의	-11825
▁무용	-11826
▁문은	-11827
▁베티	-11828
▁병을	-11829
▁부디	-11830
▁뿐이	-11831
▁소생	-11832
▁소피	-11833
▁수만	-11834
▁시티	-11835
▁없기	-11836
▁여쭤	-11837
▁영양	-11838
▁주거	-11839
▁집단	-11840
▁카르	-11841
▁크라	-11842
▁한대	-11843
▁회피	-11844
▁훔치	-11845
인이야	-11846
했더라	-11847
▁4.2	-11848
▁Dan	-11849
▁ear	-11850
▁isn	-11851
▁pri	-11852
▁war	-11853
▁검은색	-11854
▁권능이	-11855
▁남편의	-11856
▁대단히	-11857
▁떠났어	-11858
▁라이브	-11859
▁라이언	-11860
▁루이스	-11861
▁리차드	-11862
▁마법사	-11863
▁말이요	-11864
▁못한다	-11865
▁벗어날	-11866
▁보내기	-11867
▁보이나	-11868
▁부탁해	-11869
▁비켜요	-11870
▁생기는	-11871
▁시끄럽	-11872
▁얘기한	-11873
▁언젠간	-11874
▁없도록	-11875
▁용서해	-11876
▁위험이	-11877
▁의미를	-11878
▁이집트	-11879
▁임신한	-11880
▁자네와	-11881
▁줄게요	-11882
▁태양이	-11883
▁함부로	-11884
▁했었죠	-11885
▁행하고	-11886
▁희에게	-11887
▁보십시오	-11888
▁부탁해요	-11889
▁잊어버려	-11890
ession	-11891
▁index	-11892
▁모르잖아요	-11893
▁영생하리라	-11894
▁attrib	-11895
▁도와드릴까요	-11896
▁크리스티나가	-11897
3,	-11898
▁겉	-11899
▁넥	-11900
▁융	-11901
건이	-11902
부턴	-11903
브는	-11904
심에	-11905
아래	-11906
이건	-11907
졌고	-11908
트라	-11909
lib	-11910
ted	-11911
ung	-11912
▁간직	-11913
▁격리	-11914
▁공원	-11915
▁남쪽	-11916
▁낯선	-11917
▁드와	-11918
▁루카	-11919
▁베니	-11920
▁부처	-11921
▁수갑	-11922
▁수용	-11923
▁순식	-11924
▁아부	-11925
▁알바	-11926
▁어색	-11927
▁에덴	-11928
▁이긴	-11929
▁일만	-11930
▁천지	-11931
▁피에	-11932
▁행하	-11933
▁화려	-11934
들이지	-11935
명으로	-11936
뮬레이	-11937
시나요	-11938
인들을	-11939
있는지	-11940
줄래요	-11941
ness	-11942
rect	-11943
vent	-11944
▁4.1	-11945
▁pas	-11946
▁괴롭히	-11947
▁나무를	-11948
▁들어보	-11949
▁먹어요	-11950
▁무릎을	-11951
▁바치는	-11952
▁반응이	-11953
▁배터리	-11954
▁백성도	-11955
▁본적이	-11956
▁분노를	-11957
▁싸우지	-11958
▁와줘서	-11959
▁일이나	-11960
▁잡아요	-11961
▁접근할	-11962
▁정부의	-11963
▁젠장할	-11964
▁캐나다	-11965
▁행하지	-11966
▁화나게	-11967
▁확률이	-11968
▁hell	-11969
▁그랬으면	-11970
▁다행이다	-11971
▁못한다면	-11972
▁못할거야	-11973
▁보셨어요	-11974
▁서둘러요	-11975
▁제정신이	-11976
▁means	-11977
▁handle	-11978
▁defined	-11979
▁process	-11980
32	-11981
가리	-11982
더슨	-11983
중인	-11984
irt	-11985
lex	-11986
ron	-11987
▁건설	-11988
▁경멸	-11989
▁구축	-11990
▁기부	-11991
▁꿈꾸	-11992
▁낚시	-11993
▁내밀	-11994
▁눈물	-11995
▁데도	-11996
▁땅이	-11997
▁뚫고	-11998
▁리사	-11999
▁리스	-12000
▁막고	-12001
▁밤은	-12002
▁보였	-12003
▁비활	-12004
▁사슴	-12005
▁산에	-12006
▁수송	-12007
▁쉐퍼	-12008
▁승객	-12009
▁아티	-12010
▁약한	-12011
▁왔죠	-12012
▁운데	-12013
▁인물	-12014
▁인종	-12015
▁장교	-12016
▁점검	-12017
▁중위	-12018
▁키워	-12019
랐어요	-12020
랬잖아	-12021
스럽고	-12022
시켜야	-12023
이겠지	-12024
했어야	-12025
here	-12026
▁가족의	-12027
▁갔었어	-12028
▁거기다	-12029
▁경험이	-12030
▁그날에	-12031
▁대령님	-12032
▁됐다고	-12033
▁만물을	-12034
▁맛있는	-12035
▁바다가	-12036
▁밤중에	-12037
▁백성은	-12038
▁벤자민	-12039
▁사람에	-12040
▁사랑한	-12041
▁스트리	-12042
▁슬프게	-12043
▁않는데	-12044
▁암호를	-12045
▁유전자	-12046
▁자중에	-12047
▁재밌게	-12048
▁줍니다	-12049
▁증언을	-12050
▁지정한	-12051
▁직업을	-12052
▁하는건	-12053
place	-12054
▁fine	-12055
▁once	-12056
▁path	-12057
▁결혼식에	-12058
▁그렇구나	-12059
▁나한테서	-12060
▁마음으로	-12061
▁사무실로	-12062
▁세계에서	-12063
▁않겠어요	-12064
▁애들한테	-12065
▁얘기하자	-12066
▁어떨까요	-12067
▁인내하는	-12068
onight	-12069
▁두려워하라	-12070
▁불지옥으로	-12071
▁아니라고요	-12072
▁주시겠어요	-12073
▁course	-12074
▁remember	-12075
▁different	-12076
OP	-12077
Sh	-12078
국은	-12079
더미	-12080
됐고	-12081
레어	-12082
먹어	-12083
박스	-12084
박한	-12085
법이	-12086
시야	-12087
신의	-12088
양을	-12089
었군	-12090
올게	-12091
카가	-12092
판이	-12093
oss	-12094
▁건축	-12095
▁것의	-12096
▁경제	-12097
▁권력	-12098
▁꺼지	-12099
▁날은	-12100
▁넘쳐	-12101
▁도리	-12102
▁때때	-12103
▁로지	-12104
▁마담	-12105
▁반짝	-12106
▁법률	-12107
▁복부	-12108
▁서울	-12109
▁악의	-12110
▁없던	-12111
▁에바	-12112
▁트렁	-12113
▁팀은	-12114
▁피자	-12115
▁했소	-12116
▁허나	-12117
다니깐	-12118
린다고	-12119
브리엘	-12120
시까지	-12121
우리는	-12122
주려고	-12123
층으로	-12124
..."	-12125
ched	-12126
imit	-12127
▁rep	-12128
▁걱정이	-12129
▁나만을	-12130
▁남성과	-12131
▁뜻이지	-12132
▁마을을	-12133
▁말라는	-12134
▁못해서	-12135
▁무조건	-12136
▁바보야	-12137
▁방식이	-12138
▁부동산	-12139
▁분위기	-12140
▁브라우	-12141
▁빛나는	-12142
▁상태는	-12143
▁서두르	-12144
▁성서가	-12145
▁시험을	-12146
▁앉아요	-12147
▁온다고	-12148
▁유용케	-12149
▁자리가	-12150
▁종양을	-12151
▁죄인들	-12152
▁죽어요	-12153
▁지원을	-12154
▁찾아오	-12155
▁천만에	-12156
▁한번에	-12157
▁할지도	-12158
▁했거늘	-12159
▁Lily	-12160
▁door	-12161
▁mind	-12162
▁거역하며	-12163
▁기다리지	-12164
▁다음으로	-12165
▁말이예요	-12166
▁무엇이든	-12167
▁방향으로	-12168
▁백성들의	-12169
▁시작하지	-12170
▁아니란다	-12171
▁아일랜드	-12172
▁자신에게	-12173
▁죽였다고	-12174
▁테니까요	-12175
▁틀림없이	-12176
▁chang	-12177
▁makes	-12178
▁영광입니다	-12179
▁status	-12180
▁together	-12181
,"	-12182
1}	-12183
kg	-12184
▁롱	-12185
▁벅	-12186
▁져	-12187
▁폼	-12188
됐죠	-12189
마이	-12190
반이	-12191
벌레	-12192
부인	-12193
신다	-12194
었니	-12195
왔던	-12196
웠다	-12197
절제	-12198
책이	-12199
크라	-12200
키를	-12201
타임	-12202
트먼	-12203
트와	-12204
als	-12205
tty	-12206
ump	-12207
▁Ah	-12208
▁결심	-12209
▁권리	-12210
▁그렉	-12211
▁꺼야	-12212
▁도읍	-12213
▁떠오	-12214
▁막지	-12215
▁망원	-12216
▁맡은	-12217
▁멤버	-12218
▁백작	-12219
▁보며	-12220
▁볼래	-12221
▁사자	-12222
▁사태	-12223
▁삼켜	-12224
▁순교	-12225
▁스펜	-12226
▁악한	-12227
▁안락	-12228
▁에피	-12229
▁자야	-12230
▁정화	-12231
▁탈선	-12232
▁투입	-12233
▁후퇴	-12234
겠구만	-12235
시스템	-12236
하기엔	-12237
ased	-12238
reen	-12239
▁men	-12240
▁거라도	-12241
▁그날의	-12242
▁나오고	-12243
▁놔두고	-12244
▁못하지	-12245
▁문제도	-12246
▁바다에	-12247
▁번호를	-12248
▁변하지	-12249
▁보내셨	-12250
▁블로그	-12251
▁사랑하	-12252
▁산들을	-12253
▁살인자	-12254
▁시신을	-12255
▁아셨죠	-12256
▁이르는	-12257
▁제거할	-12258
▁주소를	-12259
▁증인이	-12260
▁템플릿	-12261
▁평화가	-12262
▁해줄게	-12263
▁허락된	-12264
▁현실을	-12265
하나님의	-12266
▁seen	-12267
▁그럴거야	-12268
▁그만하고	-12269
▁남자들이	-12270
▁대통령이	-12271
▁돌려보내	-12272
▁돌아가면	-12273
▁믿나이다	-12274
▁살아있어	-12275
▁숭배하지	-12276
▁우리끼리	-12277
▁stand	-12278
▁today	-12279
▁신앙인들이	-12280
▁transl	-12281
St	-12282
▁돋	-12283
갔을	-12284
군은	-12285
누구	-12286
되요	-12287
불을	-12288
살인	-12289
토니	-12290
호를	-12291
ags	-12292
que	-12293
▁DC	-12294
▁NZ	-12295
▁구하	-12296
▁나중	-12297
▁논의	-12298
▁놀이	-12299
▁누리	-12300
▁눈빛	-12301
▁대출	-12302
▁리드	-12303
▁무어	-12304
▁비숍	-12305
▁산타	-12306
▁섭취	-12307
▁숨쉬	-12308
▁스틸	-12309
▁어둡	-12310
▁억제	-12311
▁엄한	-12312
▁여겨	-12313
▁오렌	-12314
▁외로	-12315
▁위의	-12316
▁이글	-12317
▁이니	-12318
▁이륙	-12319
▁인자	-12320
▁읽은	-12321
▁자란	-12322
▁자웅	-12323
▁쟤는	-12324
▁조명	-12325
▁조성	-12326
▁크레	-12327
▁패스	-12328
▁해독	-12329
▁해안	-12330
기전에	-12331
버렸지	-12332
시켰어	-12333
십시요	-12334
아니야	-12335
이시죠	-12336
이트를	-12337
하였을	-12338
▁Pre	-12339
▁cle	-12340
▁가볍게	-12341
▁권능을	-12342
▁들여다	-12343
▁부르고	-12344
▁생각나	-12345
▁수백만	-12346
▁슬픔도	-12347
▁실험을	-12348
▁싸워야	-12349
▁알렉산	-12350
▁앤드류	-12351
▁없도다	-12352
▁에게는	-12353
▁움직이	-12354
▁이래서	-12355
▁일으켰	-12356
▁있을것	-12357
▁자기는	-12358
▁잡았다	-12359
▁정도의	-12360
▁주님에	-12361
▁집중해	-12362
▁치료할	-12363
▁카드를	-12364
▁타일러	-12365
▁하였고	-12366
▁한명의	-12367
▁해야해	-12368
crypt	-12369
▁cpdf	-12370
▁high	-12371
▁관용으로	-12372
▁도와주고	-12373
▁만났어요	-12374
▁만들었지	-12375
▁말하지만	-12376
▁보여줄게	-12377
▁부끄러워	-12378
▁스파이더	-12379
▁아닙니까	-12380
▁아름다워	-12381
▁이로하여	-12382
▁저주받은	-12383
▁트래비스	-12384
▁포함해서	-12385
▁하나님이여	-12386
▁passed	-12387
▁안녕하십니까	-12388
▁쾌	-12389
거네	-12390
났다	-12391
되서	-12392
드슨	-12393
로에	-12394
롭지	-12395
리언	-12396
밤에	-12397
방송	-12398
상도	-12399
역을	-12400
즈의	-12401
투를	-12402
하에	-12403
혔다	-12404
회사	-12405
▁Ad	-12406
▁갔지	-12407
▁겪은	-12408
▁경보	-12409
▁광대	-12410
▁넓은	-12411
▁다는	-12412
▁달걀	-12413
▁대략	-12414
▁대처	-12415
▁데서	-12416
▁도청	-12417
▁동요	-12418
▁되리	-12419
▁뒤져	-12420
▁로이	-12421
▁목이	-12422
▁묘사	-12423
▁뭐래	-12424
▁믿으	-12425
▁밀러	-12426
▁밟아	-12427
▁밤의	-12428
▁부친	-12429
▁브로	-12430
▁살살	-12431
▁성격	-12432
▁수확	-12433
▁순진	-12434
▁아팠	-12435
▁애쓰	-12436
▁양을	-12437
▁월급	-12438
▁일들	-12439
▁제압	-12440
▁플랫	-12441
▁혜를	-12442
냅니다	-12443
시간을	-12444
으시면	-12445
키스탄	-12446
▁NZT	-12447
▁괜찮죠	-12448
▁그때가	-12449
▁끌어내	-12450
▁내려진	-12451
▁너보다	-12452
▁늦어서	-12453
▁되었을	-12454
▁두렵지	-12455
▁마운트	-12456
▁멍청아	-12457
▁문제지	-12458
▁뿐이다	-12459
▁소피아	-12460
▁아닐까	-12461
▁아침을	-12462
▁안젤라	-12463
▁얼간이	-12464
▁연결해	-12465
▁옛날에	-12466
▁일요일	-12467
▁조용한	-12468
▁폭풍이	-12469
▁표시줄	-12470
▁하였을	-12471
▁할로윈	-12472
▁해봤어	-12473
되었노라	-12474
sthis	-12475
ution	-12476
▁Open	-12477
▁With	-12478
▁page	-12479
▁wasn	-12480
▁그랬잖아	-12481
▁그러하매	-12482
▁그럼으로	-12483
▁나갔어요	-12484
▁될거에요	-12485
▁명령하여	-12486
▁모른다는	-12487
▁못함이라	-12488
▁보호자도	-12489
▁샌드위치	-12490
▁재판장님	-12491
▁전화할게	-12492
▁지원하지	-12493
▁찬미하라	-12494
▁추수감사	-12495
▁필요한데	-12496
iginal	-12497
▁power	-12498
▁귀의하노라	-12499
▁않겠습니다	-12500
▁conver	-12501
▁whatsthis	-12502
".	-12503
CH	-12504
TS	-12505
▁솟	-12506
▁짱	-12507
경이	-12508
남편	-12509
돌이	-12510
아뇨	-12511
영화	-12512
일간	-12513
잠깐	-12514
증은	-12515
차별	-12516
킨스	-12517
트롤	-12518
onf	-12519
▁29	-12520
▁42	-12521
▁mb	-12522
▁감소	-12523
▁구두	-12524
▁레벨	-12525
▁물은	-12526
▁발이	-12527
▁부숴	-12528
▁뼈를	-12529
▁소련	-12530
▁소환	-12531
▁수면	-12532
▁오렴	-12533
▁이송	-12534
▁인기	-12535
▁전과	-12536
▁지가	-12537
▁총은	-12538
▁카트	-12539
▁카페	-12540
▁태우	-12541
▁폴닥	-12542
▁한게	-12543
▁할때	-12544
▁향한	-12545
▁헬기	-12546
는다고	-12547
셨네요	-12548
ence	-12549
▁197	-12550
▁198	-12551
▁Har	-12552
▁mom	-12553
▁가방에	-12554
▁각자는	-12555
▁공간을	-12556
▁괜찮다	-12557
▁뉴욕에	-12558
▁느껴져	-12559
▁당연한	-12560
▁동성애	-12561
▁되었고	-12562
▁때때로	-12563
▁뜻인지	-12564
▁머물러	-12565
▁사이버	-12566
▁생각지	-12567
▁소리는	-12568
▁손대지	-12569
▁아들과	-12570
▁알아낸	-12571
▁알아차	-12572
▁어쩌죠	-12573
▁올리고	-12574
▁용기를	-12575
▁작전을	-12576
▁잤어요	-12577
▁저희와	-12578
▁좋겠네	-12579
▁좋았을	-12580
▁할래요	-12581
▁해서는	-12582
▁헤어지	-12583
들에게도	-12584
있었어요	-12585
ready	-12586
▁Then	-12587
▁free	-12588
▁knew	-12589
▁room	-12590
▁것이라는	-12591
▁나타나지	-12592
▁다른사람	-12593
▁만들어진	-12594
▁사람이죠	-12595
▁생각했지	-12596
▁재미있는	-12597
▁주었나니	-12598
▁죽어가는	-12599
▁찬양하라	-12600
▁wanna	-12601
▁아브라함은	-12602
ND	-12603
▁걜	-12604
▁뜰	-12605
▁헷	-12606
감은	-12607
값을	-12608
길로	-12609
르기	-12610
리며	-12611
모두	-12612
방향	-12613
우린	-12614
정의	-12615
ais	-12616
clo	-12617
▁31	-12618
▁lt	-12619
▁강구	-12620
▁거대	-12621
▁고담	-12622
▁공룡	-12623
▁급한	-12624
▁딱히	-12625
▁라인	-12626
▁마우	-12627
▁무한	-12628
▁묻고	-12629
▁믿게	-12630
▁불에	-12631
▁사나	-12632
▁스텔	-12633
▁식탁	-12634
▁얻지	-12635
▁원조	-12636
▁자길	-12637
▁죄다	-12638
▁쪽은	-12639
▁책이	-12640
▁탐색	-12641
▁피고	-12642
▁필드	-12643
▁필수	-12644
▁한쪽	-12645
▁합법	-12646
▁했단	-12647
▁허약	-12648
▁화성	-12649
냐구요	-12650
당하고	-12651
였지만	-12652
인지도	-12653
조차도	-12654
▁Cla	-12655
▁Col	-12656
▁가슴에	-12657
▁건드리	-12658
▁고개를	-12659
▁교도소	-12660
▁나님께	-12661
▁느끼게	-12662
▁도착할	-12663
▁되겠다	-12664
▁되돌릴	-12665
▁마약을	-12666
▁매니저	-12667
▁바로잡	-12668
▁생각치	-12669
▁아빠의	-12670
▁이해하	-12671
▁있지요	-12672
▁자네들	-12673
▁전세계	-12674
▁전쟁은	-12675
▁집어치	-12676
▁케이시	-12677
▁키스를	-12678
▁편집기	-12679
▁피아노	-12680
▁현장에	-12681
▁휴식을	-12682
▁face	-12683
▁가브리엘	-12684
▁걱정하는	-12685
▁권능으로	-12686
▁그로부터	-12687
▁남았어요	-12688
▁누구인지	-12689
▁되었더라	-12690
▁들어가지	-12691
▁말씀하셨	-12692
▁몰랐는데	-12693
▁보아하니	-12694
▁선택하면	-12695
▁아니겠죠	-12696
▁유혹하여	-12697
▁있겠네요	-12698
▁있겠느뇨	-12699
▁until	-12700
▁들어보세요	-12701
▁아무한테도	-12702
▁않을거에요	-12703
▁조심하세요	-12704
▁추수감사절	-12705
▁크리스티나는	-12706
▁already	-12707
▁someone	-12708
yn	-12709
▁i	-12710
그건	-12711
그마	-12712
례를	-12713
마른	-12714
분한	-12715
씨의	-12716
았던	-12717
연이	-12718
자비	-12719
장난	-12720
조리	-12721
조직	-12722
함께	-12723
ift	-12724
▁NA	-12725
▁겁나	-12726
▁겁에	-12727
▁낮춰	-12728
▁내지	-12729
▁대중	-12730
▁덕에	-12731
▁막는	-12732
▁맛볼	-12733
▁미니	-12734
▁미아	-12735
▁밀고	-12736
▁불빛	-12737
▁살을	-12738
▁순수	-12739
▁신속	-12740
▁아껴	-12741
▁외교	-12742
▁용납	-12743
▁운행	-12744
▁으나	-12745
▁일과	-12746
▁임명	-12747
▁있길	-12748
▁접수	-12749
▁출연	-12750
▁취해	-12751
▁코스	-12752
▁클릭	-12753
▁파열	-12754
▁팔고	-12755
▁피쉬	-12756
▁피타	-12757
▁헬리	-12758
▁형성	-12759
▁혼합	-12760
방으로	-12761
보자고	-12762
▁yet	-12763
▁계약을	-12764
▁고난을	-12765
▁고통이	-12766
▁끝났다	-12767
▁내리고	-12768
▁냄새를	-12769
▁두개의	-12770
▁둘러싸	-12771
▁떨어질	-12772
▁말씀해	-12773
▁말하여	-12774
▁먹을래	-12775
▁목숨이	-12776
▁미끄러	-12777
▁바꾸는	-12778
▁봐야지	-12779
▁부인을	-12780
▁사냥꾼	-12781
▁소년이	-12782
▁수술할	-12783
▁신앙을	-12784
▁알겠니	-12785
▁여성과	-12786
▁역사상	-12787
▁올림픽	-12788
▁외계인	-12789
▁원하고	-12790
▁의무가	-12791
▁이기는	-12792
▁이유야	-12793
▁자비와	-12794
▁작별인	-12795
▁전에요	-12796
▁정의에	-12797
▁존재를	-12798
▁죄악에	-12799
▁창조주	-12800
▁쳐들어	-12801
▁타이밍	-12802
▁프로필	-12803
▁호텔에	-12804
적이에요	-12805
▁cert	-12806
▁meet	-12807
▁구원자도	-12808
▁그랬듯이	-12809
▁들어오는	-12810
▁방해하지	-12811
▁비행기가	-12812
▁살인사건	-12813
▁스스로의	-12814
▁아직까지	-12815
▁오늘밤에	-12816
▁잡았어요	-12817
▁주었으니	-12818
▁천만에요	-12819
▁sweet	-12820
▁캘리포니아	-12821
▁command	-12822
너는	-12823
동무	-12824
마리	-12825
망을	-12826
머스	-12827
모를	-12828
시어	-12829
쳐야	-12830
타운	-12831
탄을	-12832
하렴	-12833
▁Me	-12834
▁겁이	-12835
▁꼴이	-12836
▁내말	-12837
▁라마	-12838
▁만을	-12839
▁몽고	-12840
▁뭘로	-12841
▁바꾼	-12842
▁발언	-12843
▁밤낮	-12844
▁소중	-12845
▁속을	-12846
▁손잡	-12847
▁식물	-12848
▁아인	-12849
▁애완	-12850
▁와라	-12851
▁의논	-12852
▁지문	-12853
▁총이	-12854
국에서	-12855
그래서	-12856
로우신	-12857
베이스	-12858
이지요	-12859
층에서	-12860
하겠소	-12861
하셔야	-12862
하시기	-12863
했구나	-12864
▁강물이	-12865
▁거기가	-12866
▁고을을	-12867
▁그럴듯	-12868
▁그렇긴	-12869
▁기분을	-12870
▁되었어	-12871
▁로그인	-12872
▁마리의	-12873
▁맹세를	-12874
▁모자를	-12875
▁물고기	-12876
▁버튼을	-12877
▁보호해	-12878
▁부작용	-12879
▁사고로	-12880
▁선물이	-12881
▁세인트	-12882
▁소문이	-12883
▁소유한	-12884
▁싶었던	-12885
▁아그네	-12886
▁아니니	-12887
▁어린이	-12888
▁어머나	-12889
▁얼굴은	-12890
▁이익을	-12891
▁재밌어	-12892
▁저번에	-12893
▁전하라	-12894
▁제군들	-12895
▁치프가	-12896
▁케이티	-12897
▁하람사	-12898
▁해결해	-12899
▁헤어졌	-12900
▁흔들어	-12901
웠습니다	-12902
주십시오	-12903
하면서도	-12904
▁2000	-12905
▁Wait	-12906
▁came	-12907
▁들어와서	-12908
▁시작했다	-12909
▁싶었는데	-12910
▁아니했던	-12911
▁아무거나	-12912
▁여성들이	-12913
▁이르시길	-12914
▁이용해서	-12915
▁인도하여	-12916
▁있으면서	-12917
▁주시노라	-12918
▁파라오는	-12919
▁프란시스	-12920
▁하는거죠	-12921
ermany	-12922
ountry	-12923
▁money	-12924
▁무슨일이야	-12925
▁아니했느뇨	-12926
▁아브라함이	-12927
▁자비로우신	-12928
드리겠습니다	-12929
▁france	-12930
ez	-12931
▁옹	-12932
▁짚	-12933
▁튼	-12934
냐는	-12935
냐면	-12936
들러	-12937
렬한	-12938
법은	-12939
색이	-12940
실험	-12941
아주	-12942
장도	-12943
준비	-12944
크는	-12945
키지	-12946
하든	-12947
한건	-12948
화된	-12949
히게	-12950
gan	-12951
yes	-12952
▁거군	-12953
▁겁쟁	-12954
▁기가	-12955
▁넘기	-12956
▁뇌를	-12957
▁니들	-12958
▁단식	-12959
▁델타	-12960
▁동무	-12961
▁동영	-12962
▁레즈	-12963
▁맞게	-12964
▁매기	-12965
▁몰고	-12966
▁바뀐	-12967
▁병에	-12968
▁성적	-12969
▁아동	-12970
▁안면	-12971
▁알람	-12972
▁알레	-12973
▁엄습	-12974
▁영구	-12975
▁온통	-12976
▁옮길	-12977
▁우월	-12978
▁워렌	-12979
▁잘할	-12980
▁재건	-12981
▁재활	-12982
▁지체	-12983
▁코니	-12984
▁콜슨	-12985
▁터미	-12986
▁피우	-12987
▁함정	-12988
▁해적	-12989
▁헷갈	-12990
▁휠체	-12991
장님이	-12992
razy	-12993
ries	-12994
▁걔한테	-12995
▁곤경에	-12996
▁구급차	-12997
▁나아가	-12998
▁단단히	-12999
▁마시오	-13000
▁막아야	-13001
▁뭐랄까	-13002
▁배우고	-13003
▁봤잖아	-13004
▁부상을	-13005
▁비타민	-13006
▁사소한	-13007
▁신께서	-13008
▁않다면	-13009
▁얘기좀	-13010
▁어딘지	-13011
▁어울려	-13012
▁에밀리	-13013
▁용의자	-13014
▁이런거	-13015
▁이사람	-13016
▁일으켜	-13017
▁잘못됐	-13018
▁죽어도	-13019
▁집이야	-13020
▁짜증나	-13021
▁착하지	-13022
었으니까	-13023
▁HTTP	-13024
▁prop	-13025
▁prot	-13026
▁기다리라	-13027
▁남아있는	-13028
▁누구시죠	-13029
▁대부분은	-13030
▁떨어지는	-13031
▁말인가요	-13032
▁말하는데	-13033
▁아내에게	-13034
▁엑스레이	-13035
▁여자한테	-13036
▁우리보다	-13037
▁일어나요	-13038
▁일치하는	-13039
▁있을게요	-13040
▁주셨으니	-13041
▁match	-13042
▁since	-13043
▁모르겠군요	-13044
▁번성하리라	-13045
▁수치스러운	-13046
▁알았는데요	-13047
▁Claire	-13048
▁하나님에게로	-13049
Ch	-13050
▁낡	-13051
다며	-13052
단의	-13053
량의	-13054
모어	-13055
받게	-13056
범죄	-13057
베리	-13058
본을	-13059
스피	-13060
신가	-13061
욕을	-13062
전의	-13063
줬죠	-13064
(*)	-13065
spe	-13066
▁Ge	-13067
▁감고	-13068
▁공을	-13069
▁공중	-13070
▁구체	-13071
▁군사	-13072
▁다룰	-13073
▁덕분	-13074
▁따님	-13075
▁면도	-13076
▁몇개	-13077
▁무도	-13078
▁발목	-13079
▁배는	-13080
▁배터	-13081
▁사다	-13082
▁상호	-13083
▁손목	-13084
▁술에	-13085
▁시내	-13086
▁시니	-13087
▁아멜	-13088
▁요정	-13089
▁요한	-13090
▁웹사	-13091
▁유도	-13092
▁정원	-13093
▁주라	-13094
▁집합	-13095
▁차이	-13096
▁첨부	-13097
▁침투	-13098
▁포드	-13099
▁해칠	-13100
하느라	-13101
할지도	-13102
sing	-13103
▁911	-13104
▁Dad	-13105
▁가벼운	-13106
▁감당할	-13107
▁강제로	-13108
▁과거에	-13109
▁기회야	-13110
▁끝내고	-13111
▁대단해	-13112
▁대학교	-13113
▁마셔요	-13114
▁멈추게	-13115
▁뭐하러	-13116
▁보리니	-13117
▁살아서	-13118
▁생각만	-13119
▁설명을	-13120
▁소아과	-13121
▁양식이	-13122
▁어떠니	-13123
▁업로드	-13124
▁오랜만	-13125
▁오로지	-13126
▁이스마	-13127
▁이처럼	-13128
▁일해요	-13129
▁전부를	-13130
▁전해주	-13131
▁주리요	-13132
▁주위에	-13133
▁찾아냈	-13134
▁파티가	-13135
▁함수를	-13136
▁해주면	-13137
▁히틀러	-13138
셨잖아요	-13139
▁hour	-13140
▁거리에서	-13141
▁그로하여	-13142
▁도와줘야	-13143
▁떠났어요	-13144
▁만들어서	-13145
▁모르니까	-13146
▁브라이스	-13147
▁선지자라	-13148
▁엄마에게	-13149
▁원하는지	-13150
▁인간으로	-13151
▁있는거죠	-13152
▁회개하라	-13153
▁Image	-13154
▁Scott	-13155
▁order	-13156
▁불과하도다	-13157
▁충분하니라	-13158
▁either	-13159
▁method	-13160
▁proble	-13161
▁확인하십시오	-13162
▁actually	-13163
▁contains	-13164
▁happened	-13165
IR	-13166
▁껍	-13167
▁뽀	-13168
▁펑	-13169
가의	-13170
건을	-13171
게임	-13172
구리	-13173
길이	-13174
대도	-13175
더가	-13176
디를	-13177
르도	-13178
습을	-13179
전한	-13180
주기	-13181
▁sk	-13182
▁감기	-13183
▁개입	-13184
▁거는	-13185
▁겁을	-13186
▁나지	-13187
▁당직	-13188
▁대변	-13189
▁맛을	-13190
▁망설	-13191
▁발레	-13192
▁보렴	-13193
▁분만	-13194
▁분쟁	-13195
▁사상	-13196
▁사장	-13197
▁수컷	-13198
▁안부	-13199
▁영감	-13200
▁옷이	-13201
▁왕은	-13202
▁웃겨	-13203
▁원칙	-13204
▁작고	-13205
▁주옵	-13206
▁지각	-13207
▁처형	-13208
▁체육	-13209
▁카밀	-13210
▁클램	-13211
▁토비	-13212
▁팔코	-13213
▁팬티	-13214
▁포장	-13215
▁할당	-13216
▁헤일	-13217
▁화물	-13218
▁휴지	-13219
심으로	-13220
크리스	-13221
eric	-13222
onia	-13223
type	-13224
ular	-13225
▁non	-13226
▁yes	-13227
▁가지러	-13228
▁겠어요	-13229
▁구멍이	-13230
▁다음날	-13231
▁들이라	-13232
▁몰랐네	-13233
▁뭔가요	-13234
▁바꾸고	-13235
▁비유를	-13236
▁소수를	-13237
▁싫어해	-13238
▁심장에	-13239
▁없음을	-13240
▁예중이	-13241
▁이래요	-13242
▁인도하	-13243
▁일어서	-13244
▁장소에	-13245
▁재물을	-13246
▁전부야	-13247
▁전해줘	-13248
▁조사해	-13249
▁증명할	-13250
▁직업이	-13251
▁창조를	-13252
▁했더뇨	-13253
▁회사에	-13254
겠는데요	-13255
ouble	-13256
▁send	-13257
▁size	-13258
▁귀머거리	-13259
▁도시에서	-13260
▁도와드릴	-13261
▁돌아오는	-13262
▁드와이트	-13263
▁부당하게	-13264
▁사람들에	-13265
▁시작하기	-13266
▁아름답게	-13267
▁않을까요	-13268
▁없었는데	-13269
▁예언자가	-13270
▁올라가서	-13271
▁이것으로	-13272
▁exist	-13273
▁미안하다고	-13274
▁하셨잖아요	-13275
itchell	-13276
▁matter	-13277
▁correct	-13278
▁tonight	-13279
▁Mitchell	-13280
2)	-13281
ET	-13282
ny	-13283
가야	-13284
게나	-13285
두요	-13286
렀어	-13287
리온	-13288
소는	-13289
악한	-13290
있네	-13291
졌지	-13292
쳤을	-13293
치에	-13294
혀서	-13295
▁가실	-13296
▁거랑	-13297
▁결합	-13298
▁교체	-13299
▁나비	-13300
▁노숙	-13301
▁니한	-13302
▁당사	-13303
▁대마	-13304
▁등에	-13305
▁민감	-13306
▁발로	-13307
▁방은	-13308
▁배짱	-13309
▁복을	-13310
▁수의	-13311
▁순찰	-13312
▁스키	-13313
▁시리	-13314
▁싶네	-13315
▁얼룩	-13316
▁울어	-13317
▁유니	-13318
▁유머	-13319
▁일생	-13320
▁장관	-13321
▁전력	-13322
▁중상	-13323
▁진주	-13324
▁찍을	-13325
▁초래	-13326
▁카일	-13327
▁파커	-13328
▁피로	-13329
▁후엔	-13330
같은데	-13331
된다면	-13332
었으며	-13333
이니라	-13334
지만요	-13335
하였기	-13336
했고요	-13337
했었죠	-13338
aven	-13339
ones	-13340
▁가족들	-13341
▁건물을	-13342
▁것이지	-13343
▁게을리	-13344
▁끼어들	-13345
▁만남을	-13346
▁무사히	-13347
▁믿는자	-13348
▁바다로	-13349
▁발견할	-13350
▁빼앗아	-13351
▁성실한	-13352
▁신발을	-13353
▁심호흡	-13354
▁애한테	-13355
▁어울리	-13356
▁요원님	-13357
▁이상이	-13358
▁주시오	-13359
▁중인데	-13360
▁찾아왔	-13361
▁트럭을	-13362
▁한명이	-13363
▁행위로	-13364
하니까요	-13365
▁libr	-13366
▁move	-13367
▁nice	-13368
▁phil	-13369
▁가져오는	-13370
▁경배하지	-13371
▁공경하라	-13372
▁나타나는	-13373
▁늦었어요	-13374
▁대해서도	-13375
▁도와주는	-13376
▁두셨노라	-13377
▁말입니까	-13378
▁선지자들	-13379
▁아니고요	-13380
▁없다구요	-13381
▁좋을거야	-13382
▁하겠다고	-13383
▁스스로에게	-13384
▁4.1.0)	-13385
▁감사드립니다	-13386
▁그곳으로부터	-13387
▁pattern	-13388
▁yourself	-13389
LI	-13390
▁콧	-13391
나와	-13392
능을	-13393
맨이	-13394
서의	-13395
열을	-13396
하마	-13397
und	-13398
▁Ne	-13399
▁gl	-13400
▁같소	-13401
▁개는	-13402
▁남친	-13403
▁담아	-13404
▁돌보	-13405
▁동기	-13406
▁동화	-13407
▁몇달	-13408
▁목걸	-13409
▁무단	-13410
▁바에	-13411
▁변형	-13412
▁봐주	-13413
▁비명	-13414
▁새가	-13415
▁서부	-13416
▁안달	-13417
▁야생	-13418
▁엠마	-13419
▁오염	-13420
▁오프	-13421
▁유진	-13422
▁정찰	-13423
▁제스	-13424
▁족장	-13425
▁중력	-13426
▁집행	-13427
▁크립	-13428
▁텔레	-13429
▁토마	-13430
▁포옹	-13431
▁해내	-13432
것이다	-13433
깁니다	-13434
들이요	-13435
살짜리	-13436
손으로	-13437
으니라	-13438
졌다고	-13439
NAME	-13440
ding	-13441
lock	-13442
▁ing	-13443
▁가지마	-13444
▁거고요	-13445
▁경우에	-13446
▁공정한	-13447
▁그렇진	-13448
▁길거리	-13449
▁나갔어	-13450
▁나라의	-13451
▁디렉터	-13452
▁마법의	-13453
▁많아서	-13454
▁모세여	-13455
▁무게를	-13456
▁미래에	-13457
▁방식을	-13458
▁스케줄	-13459
▁심장마	-13460
▁어디죠	-13461
▁인턴이	-13462
▁잘했다	-13463
▁저들을	-13464
▁전화도	-13465
▁플래시	-13466
▁하루를	-13467
▁호출해	-13468
테니까요	-13469
aughs	-13470
▁Here	-13471
▁cons	-13472
▁live	-13473
▁mail	-13474
▁가능성은	-13475
▁계시되었	-13476
▁그러지마	-13477
▁그런가요	-13478
▁기다리게	-13479
▁당신은요	-13480
▁드러내는	-13481
▁못합니다	-13482
▁물어봐도	-13483
▁믿습니다	-13484
▁신이시여	-13485
▁쓸데없는	-13486
▁여기저기	-13487
▁있는지도	-13488
▁조심해야	-13489
▁좋겠는데	-13490
안녕하세요	-13491
object	-13492
▁guess	-13493
▁그분에게로	-13494
▁반가웠어요	-13495
▁아니거든요	-13496
▁않을겁니다	-13497
▁프로그램이	-13498
Country	-13499
▁실패했습니다	-13500
▁session	-13501
▁possible	-13502
▁containing	-13503
▁configuration	-13504
NS	-13505
TE	-13506
mp	-13507
▁~	-13508
▁깎	-13509
▁싣	-13510
▁획	-13511
건대	-13512
너가	-13513
너무	-13514
당이	-13515
바람	-13516
세이	-13517
웠을	-13518
자르	-13519
체에	-13520
초를	-13521
코드	-13522
lic	-13523
ots	-13524
▁75	-13525
▁LD	-13526
▁La	-13527
▁ob	-13528
▁거미	-13529
▁고의	-13530
▁굴복	-13531
▁그라	-13532
▁근사	-13533
▁기저	-13534
▁내놓	-13535
▁년이	-13536
▁다닌	-13537
▁담요	-13538
▁도끼	-13539
▁레인	-13540
▁말썽	-13541
▁먼지	-13542
▁밖의	-13543
▁버릇	-13544
▁번의	-13545
▁범인	-13546
▁사로	-13547
▁수배	-13548
▁여부	-13549
▁예방	-13550
▁왔군	-13551
▁유흑	-13552
▁잊혀	-13553
▁잠그	-13554
▁좌표	-13555
▁진술	-13556
▁책은	-13557
▁총기	-13558
▁토르	-13559
▁트로	-13560
▁화났	-13561
▁후드	-13562
리에서	-13563
버리면	-13564
시키기	-13565
었구나	-13566
었단다	-13567
일수도	-13568
해서는	-13569
aley	-13570
cean	-13571
▁ISO	-13572
▁bus	-13573
▁결혼은	-13574
▁경건한	-13575
▁길이라	-13576
▁까마귀	-13577
▁깨닫게	-13578
▁나더러	-13579
▁나타난	-13580
▁남아서	-13581
▁도망치	-13582
▁돌연변	-13583
▁목적이	-13584
▁무기가	-13585
▁보자구	-13586
▁분들이	-13587
▁싶다는	-13588
▁안하고	-13589
▁어머님	-13590
▁었노라	-13591
▁정보는	-13592
▁죄악과	-13593
▁죽음은	-13594
▁지정된	-13595
하는거지	-13596
chool	-13597
itain	-13598
▁100%	-13599
▁가야겠다	-13600
▁고맙구나	-13601
▁기억해요	-13602
▁똑똑하고	-13603
▁받았노라	-13604
▁불지옥에	-13605
▁사람처럼	-13606
▁시스템이	-13607
▁앞으로도	-13608
▁어울리는	-13609
▁없으리라	-13610
▁있다는걸	-13611
▁진리로써	-13612
Region	-13613
▁아버지에게	-13614
▁아시다시피	-13615
ippines	-13616
▁counties	-13617
▁understand	-13618
7,	-13619
mb	-13620
ze	-13621
로니	-13622
반응	-13623
보여	-13624
시네	-13625
심도	-13626
업자	-13627
와이	-13628
창조	-13629
천만	-13630
하리	-13631
학적	-13632
했대	-13633
ley	-13634
men	-13635
ret	-13636
▁관광	-13637
▁단축	-13638
▁도나	-13639
▁라도	-13640
▁매주	-13641
▁바위	-13642
▁배심	-13643
▁배포	-13644
▁번은	-13645
▁빼면	-13646
▁수단	-13647
▁아실	-13648
▁야만	-13649
▁약은	-13650
▁얻게	-13651
▁엄격	-13652
▁와야	-13653
▁우려	-13654
▁우측	-13655
▁위탁	-13656
▁유부	-13657
▁음반	-13658
▁일인	-13659
▁잃어	-13660
▁자녀	-13661
▁정책	-13662
▁조나	-13663
▁줄여	-13664
▁중언	-13665
▁카우	-13666
▁트윗	-13667
▁한이	-13668
▁함에	-13669
▁항생	-13670
▁형벌	-13671
되어야	-13672
명이나	-13673
줄게요	-13674
줬는데	-13675
줬잖아	-13676
▁god	-13677
▁개소리	-13678
▁걸리는	-13679
▁괜찮네	-13680
▁구하러	-13681
▁남편과	-13682
▁동일한	-13683
▁됩니까	-13684
▁멋지지	-13685
▁명령은	-13686
▁버렸어	-13687
▁보스턴	-13688
▁보통은	-13689
▁볼지옥	-13690
▁분명해	-13691
▁신성한	-13692
▁아침이	-13693
▁어두워	-13694
▁예쁘다	-13695
▁우주선	-13696
▁의사는	-13697
▁있는것	-13698
▁있다니	-13699
▁장치가	-13700
▁정당한	-13701
▁죽어서	-13702
▁중이다	-13703
▁지금의	-13704
▁징벌이	-13705
▁쫓아내	-13706
▁충실한	-13707
▁택하지	-13708
▁행하라	-13709
들입니다	-13710
스입니다	-13711
하셨나니	-13712
하였다면	-13713
▁Wind	-13714
▁gone	-13715
▁구하려고	-13716
▁물어보라	-13717
▁변호사가	-13718
▁사용해서	-13719
▁생각해서	-13720
▁선택권이	-13721
▁순식간에	-13722
▁알고있다	-13723
▁어머니의	-13724
▁으로부터	-13725
▁있었거든	-13726
▁자들이여	-13727
▁정말로요	-13728
▁프레스턴	-13729
▁하는데요	-13730
▁하시나니	-13731
▁환자들이	-13732
▁ocean	-13733
▁가야겠어요	-13734
▁원하셨다면	-13735
▁유감입니다	-13736
▁죽었습니다	-13737
▁테러리스트	-13738
▁create	-13739
▁britain	-13740
▁otherwise	-13741
▁philippines	-13742
15	-13743
16	-13744
;)	-13745
sy	-13746
▁앓	-13747
께끼	-13748
냐구	-13749
년전	-13750
미한	-13751
산이	-13752
스야	-13753
시도	-13754
식은	-13755
신지	-13756
애가	-13757
웨어	-13758
좌를	-13759
하란	-13760
rim	-13761
▁MB	-13762
▁간이	-13763
▁계정	-13764
▁구속	-13765
▁기호	-13766
▁꿈은	-13767
▁내쫓	-13768
▁늘어	-13769
▁다뤄	-13770
▁당할	-13771
▁때론	-13772
▁망쳤	-13773
▁뭐였	-13774
▁반사	-13775
▁반항	-13776
▁빚진	-13777
▁석방	-13778
▁세금	-13779
▁신랑	-13780
▁양은	-13781
▁에는	-13782
▁예비	-13783
▁의로	-13784
▁잠겨	-13785
▁전리	-13786
▁준수	-13787
▁클락	-13788
▁티켓	-13789
▁하더	-13790
간다고	-13791
같아요	-13792
겠지요	-13793
그렇지	-13794
했군요	-13795
more	-13796
▁Bar	-13797
▁SQL	-13798
▁app	-13799
▁job	-13800
▁건강한	-13801
▁그다지	-13802
▁기저귀	-13803
▁끝나지	-13804
▁나무에	-13805
▁나이에	-13806
▁남자야	-13807
▁내리는	-13808
▁동물이	-13809
▁말아라	-13810
▁부유한	-13811
▁사진은	-13812
▁순결한	-13813
▁아닌지	-13814
▁알았네	-13815
▁어둠의	-13816
▁왕국이	-13817
▁월요일	-13818
▁이겨낼	-13819
▁이지는	-13820
▁임무가	-13821
▁작업이	-13822
▁전화기	-13823
▁좋겠군	-13824
▁주변을	-13825
▁지하철	-13826
▁크레이	-13827
▁해보고	-13828
▁회사가	-13829
할겁니다	-13830
▁dest	-13831
▁draw	-13832
▁menu	-13833
▁rest	-13834
▁그날까지	-13835
▁기억하는	-13836
▁도와줄게	-13837
▁들어가야	-13838
▁마이크로	-13839
▁미쳤다고	-13840
▁비유하지	-13841
▁생각하게	-13842
▁생각했다	-13843
▁세상에나	-13844
▁스테이크	-13845
▁스튜디오	-13846
▁않겠지만	-13847
▁저쪽으로	-13848
▁주님으로	-13849
▁주머니에	-13850
▁주실래요	-13851
▁친구들과	-13852
▁카메라를	-13853
▁호텔에서	-13854
▁그들로부터	-13855
▁맹세하나니	-13856
▁발견했어요	-13857
▁선지자께서	-13858
▁유감이에요	-13859
▁이동합니다	-13860
▁자손들이여	-13861
aughter	-13862
▁parser	-13863
▁position	-13864
-8	-13865
.%	-13866
19	-13867
co	-13868
▁뱉	-13869
건만	-13870
되나	-13871
론은	-13872
바른	-13873
오니	-13874
으렴	-13875
졌죠	-13876
처가	-13877
함의	-13878
화야	-13879
amn	-13880
▁SE	-13881
▁가입	-13882
▁고무	-13883
▁관여	-13884
▁국방	-13885
▁그립	-13886
▁길게	-13887
▁까다	-13888
▁니키	-13889
▁도덕	-13890
▁들릴	-13891
▁라스	-13892
▁로리	-13893
▁바네	-13894
▁박물	-13895
▁방울	-13896
▁사제	-13897
▁신께	-13898
▁아미	-13899
▁알수	-13900
▁앞을	-13901
▁여금	-13902
▁염병	-13903
▁왜곡	-13904
▁외곽	-13905
▁이마	-13906
▁일의	-13907
▁잃는	-13908
▁자국	-13909
▁중령	-13910
▁추워	-13911
▁포인	-13912
▁할리	-13913
▁헬멧	-13914
▁현대	-13915
▁효용	-13916
만큼은	-13917
앞에서	-13918
어야죠	-13919
였으면	-13920
이세요	-13921
있잖아	-13922
트리스	-13923
페이지	-13924
편에서	-13925
하나요	-13926
leep	-13927
▁400	-13928
▁acc	-13929
▁hur	-13930
▁saw	-13931
▁가능해	-13932
▁거겠죠	-13933
▁과정을	-13934
▁구스타	-13935
▁규칙이	-13936
▁그런걸	-13937
▁네이단	-13938
▁노래가	-13939
▁단서를	-13940
▁담배를	-13941
▁대가로	-13942
▁데려갔	-13943
▁됐는지	-13944
▁되겠네	-13945
▁들어라	-13946
▁떠나기	-13947
▁먹어라	-13948
▁모두의	-13949
▁문제죠	-13950
▁받았다	-13951
▁벌어졌	-13952
▁병원이	-13953
▁복음과	-13954
▁볼까요	-13955
▁불러올	-13956
▁사부님	-13957
▁살려줘	-13958
▁에이전	-13959
▁였으니	-13960
▁왜그래	-13961
▁은혜라	-13962
▁이런걸	-13963
▁인정해	-13964
▁전문의	-13965
▁전혀요	-13966
▁죽인다	-13967
▁지켜볼	-13968
▁터미널	-13969
▁학교를	-13970
▁향하여	-13971
했었어요	-13972
bably	-13973
rying	-13974
▁고통스러	-13975
▁노력하는	-13976
▁누구보다	-13977
▁먹었어요	-13978
▁모르더라	-13979
▁받아들여	-13980
▁방해해서	-13981
▁설명하여	-13982
▁아버지도	-13983
▁않았잖아	-13984
▁알렉스는	-13985
▁오래전에	-13986
▁이상해요	-13987
▁지참금을	-13988
▁치료제를	-13989
▁파키스탄	-13990
▁화장실에	-13991
▁Haley	-13992
▁gener	-13993
▁heard	-13994
▁honey	-13995
▁retri	-13996
▁생각하는지	-13997
▁예정입니다	-13998
▁이해합니다	-13999
▁자들이라면	-14000
viously	-14001
▁comple	-14002
▁request	-14003
4)	-14004
GI	-14005
▁퓨	-14006
▁힌	-14007
가도	-14008
관의	-14009
구로	-14010
디는	-14011
려야	-14012
렸던	-14013
막이	-14014
무원	-14015
범은	-14016
살때	-14017
절을	-14018
종이	-14019
좌에	-14020
티스	-14021
편이	-14022
하의	-14023
할께	-14024
oud	-14025
▁33	-14026
▁es	-14027
▁가본	-14028
▁같죠	-14029
▁견인	-14030
▁구린	-14031
▁근접	-14032
▁꼭대	-14033
▁끝냈	-14034
▁나고	-14035
▁넣은	-14036
▁년간	-14037
▁녹화	-14038
▁놀러	-14039
▁니다	-14040
▁덜어	-14041
▁바르	-14042
▁보시	-14043
▁불만	-14044
▁비추	-14045
▁빨래	-14046
▁뼈가	-14047
▁세이	-14048
▁아유	-14049
▁액체	-14050
▁영업	-14051
▁왕을	-14052
▁전시	-14053
▁정글	-14054
▁청혼	-14055
▁취향	-14056
▁튼튼	-14057
▁판사	-14058
▁포착	-14059
▁형씨	-14060
가에서	-14061
거라구	-14062
된다고	-14063
하자는	-14064
▁Cor	-14065
▁inv	-14066
▁가자구	-14067
▁각각의	-14068
▁거라곤	-14069
▁곳이죠	-14070
▁구했어	-14071
▁그림자	-14072
▁기뻐요	-14073
▁누르고	-14074
▁덩어리	-14075
▁도와준	-14076
▁두려운	-14077
▁때에는	-14078
▁마실래	-14079
▁말예요	-14080
▁맥박이	-14081
▁목적은	-14082
▁못했다	-14083
▁무너뜨	-14084
▁미국에	-14085
▁미래가	-14086
▁바이탈	-14087
▁보물이	-14088
▁서로의	-14089
▁섬기지	-14090
▁성공할	-14091
▁아느뇨	-14092
▁제말은	-14093
▁종에게	-14094
▁주었고	-14095
▁지불한	-14096
▁지상의	-14097
▁한번은	-14098
▁허드슨	-14099
이라니까	-14100
query	-14101
▁save	-14102
▁고맙다고	-14103
▁고양이를	-14104
▁그래야만	-14105
▁기록되어	-14106
▁되었노라	-14107
▁떠오르는	-14108
▁뜻이에요	-14109
▁레즈비언	-14110
▁말하려고	-14111
▁비행기에	-14112
▁빠져나갈	-14113
▁생각한다	-14114
▁선생님도	-14115
▁아들에게	-14116
▁않으니까	-14117
▁어떤가요	-14118
▁여자에게	-14119
▁염원하고	-14120
▁잃었어요	-14121
▁잠시동안	-14122
▁증인으로	-14123
▁크리스마	-14124
▁하나라도	-14125
▁하는거지	-14126
▁할거에요	-14127
▁미안하구나	-14128
▁않으시니라	-14129
▁ingres	-14130
LO	-14131
▁&	-14132
▁뎁	-14133
▁쿵	-14134
▁펀	-14135
가스	-14136
결과	-14137
담을	-14138
되니	-14139
따라	-14140
르타	-14141
맞아	-14142
어떤	-14143
연을	-14144
지야	-14145
출혈	-14146
크로	-14147
arg	-14148
hed	-14149
tip	-14150
▁*.	-14151
▁5,	-14152
▁경영	-14153
▁기둥	-14154
▁꾸몄	-14155
▁남지	-14156
▁낳고	-14157
▁노먼	-14158
▁느려	-14159
▁닮았	-14160
▁도미	-14161
▁래리	-14162
▁받기	-14163
▁보답	-14164
▁볼수	-14165
▁비싸	-14166
▁실력	-14167
▁실시	-14168
▁심부	-14169
▁아아	-14170
▁이뇨	-14171
▁제조	-14172
▁짓도	-14173
▁칼로	-14174
▁팔찌	-14175
▁패널	-14176
▁풍부	-14177
▁하위	-14178
▁하필	-14179
▁후면	-14180
거리고	-14181
어버리	-14182
iles	-14183
▁hot	-14184
▁가문의	-14185
▁가시는	-14186
▁같던데	-14187
▁거네요	-14188
▁과거를	-14189
▁남아있	-14190
▁노력을	-14191
▁누나가	-14192
▁도망칠	-14193
▁돌리고	-14194
▁동등한	-14195
▁리디아	-14196
▁모스크	-14197
▁못하여	-14198
▁믿는다	-14199
▁보냄은	-14200
▁불렀어	-14201
▁블로거	-14202
▁사령관	-14203
▁사항을	-14204
▁선생이	-14205
▁시드니	-14206
▁여자도	-14207
▁올라와	-14208
▁왕국을	-14209
▁요즘은	-14210
▁위스키	-14211
▁이놈아	-14212
▁일들은	-14213
▁전쟁에	-14214
▁조언을	-14215
▁주리니	-14216
▁증인을	-14217
▁진실은	-14218
▁충격을	-14219
▁컨트롤	-14220
▁튀어나	-14221
▁한방울	-14222
▁후회할	-14223
▁휴가를	-14224
▁희망이	-14225
뿐이에요	-14226
하겠지만	-14227
하시도다	-14228
▁body	-14229
▁dead	-14230
▁drop	-14231
▁괜찮다면	-14232
▁그녀들이	-14233
▁기억나요	-14234
▁반복한다	-14235
▁봤습니다	-14236
▁부모에게	-14237
▁사라지는	-14238
▁생각하니	-14239
▁선택하여	-14240
▁순종하고	-14241
▁아니었다	-14242
▁아무말도	-14243
▁알았으면	-14244
▁얼마든지	-14245
▁염원하는	-14246
▁원한다고	-14247
▁자네한테	-14248
▁테스트를	-14249
▁crazy	-14250
▁watch	-14251
▁거짓말쟁이	-14252
▁걱정하지마	-14253
▁기다리세요	-14254
▁다이아몬드	-14255
▁메러디스는	-14256
▁사람들처럼	-14257
▁살려주세요	-14258
▁필요없어요	-14259
▁3.0.6,	-14260
▁재앙으로부터	-14261
▁install	-14262
▁language	-14263
ef	-14264
~!	-14265
▁겹	-14266
▁짠	-14267
갈게	-14268
년도	-14269
롭고	-14270
문자	-14271
방이	-14272
쇠를	-14273
순간	-14274
왔죠	-14275
저는	-14276
저를	-14277
책임	-14278
코자	-14279
탄이	-14280
학을	-14281
할래	-14282
▁1(	-14283
▁Bo	-14284
▁골프	-14285
▁괴짜	-14286
▁구글	-14287
▁궁전	-14288
▁깊숙	-14289
▁나선	-14290
▁놈아	-14291
▁닥치	-14292
▁대면	-14293
▁더요	-14294
▁데렉	-14295
▁드루	-14296
▁만화	-14297
▁맞췄	-14298
▁바랐	-14299
▁샘이	-14300
▁소서	-14301
▁수련	-14302
▁슬로	-14303
▁연필	-14304
▁은신	-14305
▁지를	-14306
▁챙기	-14307
▁타요	-14308
▁트롤	-14309
▁하퍼	-14310
▁함선	-14311
▁해병	-14312
▁호소	-14313
▁흉내	-14314
그레이	-14315
는걸요	-14316
들이나	-14317
시간에	-14318
인들과	-14319
프라이	-14320
하이머	-14321
해야할	-14322
ross	-14323
runt	-14324
▁같은거	-14325
▁게임이	-14326
▁결정은	-14327
▁계시죠	-14328
▁고맙군	-14329
▁기억할	-14330
▁다하고	-14331
▁대답은	-14332
▁도시로	-14333
▁동생은	-14334
▁망쳤어	-14335
▁멈추고	-14336
▁물어본	-14337
▁벙어리	-14338
▁별로야	-14339
▁보이죠	-14340
▁사고를	-14341
▁사용한	-14342
▁서류를	-14343
▁수치가	-14344
▁싸구려	-14345
▁않나니	-14346
▁알았나	-14347
▁어른이	-14348
▁여기다	-14349
▁용서할	-14350
▁의무를	-14351
▁이분은	-14352
▁이유도	-14353
▁일인가	-14354
▁있었소	-14355
▁재능이	-14356
▁전화로	-14357
▁처리해	-14358
▁포스터	-14359
▁한사람	-14360
▁해변에	-14361
▁했더라	-14362
▁형제의	-14363
▁확신이	-14364
aster	-14365
where	-14366
▁date	-14367
▁거라구요	-14368
▁너회들이	-14369
▁되겠네요	-14370
▁들어오게	-14371
▁모든것을	-14372
▁모양이야	-14373
▁블레이크	-14374
▁수수께끼	-14375
▁싶어서요	-14376
▁아티스트	-14377
▁지켜보는	-14378
▁짓이에요	-14379
▁해보세요	-14380
▁회개하는	-14381
▁흉부외과	-14382
▁light	-14383
▁party	-14384
▁생각하는데	-14385
▁생각한다면	-14386
▁성공적으로	-14387
▁원하신다면	-14388
ocument	-14389
▁mother	-14390
▁looking	-14391
▁arguments	-14392
,%	-14393
DF	-14394
fo	-14395
▁덥	-14396
▁떴	-14397
▁셸	-14398
구니	-14399
되죠	-14400
들여	-14401
아침	-14402
오가	-14403
제발	-14404
종을	-14405
채를	-14406
평가	-14407
한번	-14408
mer	-14409
▁1/	-14410
▁CU	-14411
▁ru	-14412
▁가나	-14413
▁고래	-14414
▁근본	-14415
▁내야	-14416
▁더한	-14417
▁도난	-14418
▁문신	-14419
▁바짝	-14420
▁바친	-14421
▁봤나	-14422
▁분들	-14423
▁뺏어	-14424
▁사정	-14425
▁상냥	-14426
▁세웠	-14427
▁수입	-14428
▁수장	-14429
▁쉴드	-14430
▁쓰게	-14431
▁알츠	-14432
▁애원	-14433
▁엉뚱	-14434
▁여인	-14435
▁왔고	-14436
▁위키	-14437
▁있든	-14438
▁장인	-14439
▁전용	-14440
▁존이	-14441
▁춘향	-14442
▁카렌	-14443
▁필름	-14444
▁호수	-14445
▁화나	-14446
말씀을	-14447
보려고	-14448
사이에	-14449
자예요	-14450
하고도	-14451
ping	-14452
▁org	-14453
▁가르쳤	-14454
▁가르친	-14455
▁거짓을	-14456
▁괜찮나	-14457
▁균형을	-14458
▁그럴까	-14459
▁내려졌	-14460
▁넘치는	-14461
▁뛰어나	-14462
▁많은데	-14463
▁멋지다	-14464
▁밑에는	-14465
▁반지를	-14466
▁방사선	-14467
▁배우는	-14468
▁부족한	-14469
▁사람인	-14470
▁사로잡	-14471
▁설명이	-14472
▁쓸모가	-14473
▁안해도	-14474
▁언제쯤	-14475
▁엔지니	-14476
▁여왕이	-14477
▁우리에	-14478
▁유사한	-14479
▁의심을	-14480
▁인간에	-14481
▁있거늘	-14482
▁있으라	-14483
▁저보다	-14484
▁저예요	-14485
▁제가요	-14486
▁죽여라	-14487
▁지켜야	-14488
▁케이블	-14489
▁케일럽	-14490
▁하루가	-14491
▁행복을	-14492
▁향하는	-14493
▁환영해	-14494
▁환자야	-14495
▁가게에서	-14496
▁교훈으로	-14497
▁그놈들이	-14498
▁끊임없이	-14499
▁나한테는	-14500
▁떨어져서	-14501
▁말해줄게	-14502
▁모르는데	-14503
▁바이러스	-14504
▁보고서를	-14505
▁보았느뇨	-14506
▁선조들의	-14507
▁아버지께	-14508
▁않았나요	-14509
▁없습니까	-14510
▁에너지를	-14511
▁유감이야	-14512
▁이상하지	-14513
▁인내하고	-14514
▁자신들의	-14515
▁주셨노라	-14516
▁회사에서	-14517
▁above	-14518
▁valid	-14519
▁말하는거야	-14520
▁보여줍니다	-14521
▁사라졌어요	-14522
▁알츠하이머	-14523
▁pretty	-14524
▁running	-14525
▁variables	-14526
3.	-14527
HO	-14528
uk	-14529
▁	-14530
이	-14531
.	-14532
하	-14533
그	-14534
요	-14535
가	-14536
어	-14537
는	-14538
지	-14539
아	-14540
다	-14541
에	-14542
을	-14543
고	-14544
e	-14545
?	-14546
,	-14547
니	-14548
나	-14549
들	-14550
라	-14551
리	-14552
은	-14553
t	-14554
게	-14555
o	-14556
도	-14557
로	-14558
a	-14559
-	-14560
있	-14561
거	-14562
n	-14563
서	-14564
의	-14565
해	-14566
기	-14567
자	-14568
야	-14569
한	-14570
i	-14571
를	-14572
s	-14573
사	-14574
시	-14575
r	-14576
내	-14577
말	-14578
만	-14579
으	-14580
h	-14581
!	-14582
여	-14583
보	-14584
l	-14585
것	-14586
신	-14587
일	-14588
수	-14589
면	-14590
대	-14591
안	-14592
스	-14593
마	-14594
우	-14595
인	-14596
주	-14597
네	-14598
제	-14599
님	-14600
u	-14601
데	-14602
했	-14603
너	-14604
d	-14605
었	-14606
전	-14607
오	-14608
없	-14609
할	-14610
무	-14611
m	-14612
정	-14613
구	-14614
러	-14615
c	-14616
알	-14617
모	-14618
부	-14619
당	-14620
려	-14621
죠	-14622
까	-14623
저	-14624
y	-14625
래	-14626
상	-14627
겠	-14628
세	-14629
생	-14630
과	-14631
되	-14632
건	-14633
실	-14634
g	-14635
'	-14636
장	-14637
분	-14638
p	-14639
더	-14640
와	-14641
않	-14642
때	-14643
f	-14644
희	-14645
소	-14646
난	-14647
위	-14648
진	-14649
b	-14650
드	-14651
든	-14652
습	-14653
람	-14654
미	-14655
좋	-14656
w	-14657
같	-14658
비	-14659
음	-14660
두	-14661
았	-14662
선	-14663
간	-14664
예	-14665
르	-14666
걸	-14667
치	-14668
바	-14669
원	-14670
성	-14671
문	-14672
금	-14673
터	-14674
못	-14675
조	-14676
계	-14677
각	-14678
중	-14679
군	-14680
잖	-14681
적	-14682
트	-14683
노	-14684
봐	-14685
뭐	-14686
버	-14687
동	-14688
입	-14689
날	-14690
명	-14691
렇	-14692
께	-14693
런	-14694
물	-14695
심	-14696
k	-14697
랑	-14698
(	-14699
운	-14700
테	-14701
)	-14702
잘	-14703
죽	-14704
1	-14705
방	-14706
디	-14707
누	-14708
며	-14709
유	-14710
불	-14711
던	-14712
경	-14713
I	-14714
히	-14715
단	-14716
였	-14717
좀	-14718
행	-14719
0	-14720
"	-14721
화	-14722
워	-14723
살	-14724
용	-14725
럼	-14726
속	-14727
관	-14728
돼	-14729
식	-14730
크	-14731
v	-14732
처	-14733
줄	-14734
남	-14735
♪	-14736
발	-14737
함	-14738
길	-14739
파	-14740
른	-14741
레	-14742
린	-14743
직	-14744
왜	-14745
번	-14746
합	-14747
약	-14748
받	-14749
감	-14750
프	-14751
녀	-14752
느	-14753
작	-14754
집	-14755
돌	-14756
결	-14757
슨	-14758
배	-14759
믿	-14760
공	-14761
피	-14762
타	-14763
S	-14764
T	-14765
연	-14766
2	-14767
P	-14768
친	-14769
재	-14770
냐	-14771
호	-14772
C	-14773
된	-14774
싶	-14775
늘	-14776
A	-14777
영	-14778
차	-14779
엄	-14780
개	-14781
필	-14782
애	-14783
찮	-14784
셨	-14785
뇨	-14786
괜	-14787
왔	-14788
록	-14789
찾	-14790
떻	-14791
빠	-14792
얘	-14793
머	-14794
질	-14795
달	-14796
냥	-14797
져	-14798
매	-14799
술	-14800
회	-14801
됐	-14802
반	-14803
키	-14804
:	-14805
국	-14806
줘	-14807
통	-14808
체	-14809
복	-14810
언	-14811
망	-14812
맞	-14813
후	-14814
절	-14815
새	-14816
올	-14817
름	-14818
갈	-14819
먹	-14820
카	-14821
릴	-14822
될	-14823
3	-14824
많	-14825
손	-14826
또	-14827
종	-14828
H	-14829
양	-14830
잠	-14831
따	-14832
곳	-14833
년	-14834
란	-14835
혼	-14836
얼	-14837
N	-14838
천	-14839
씨	-14840
넌	-14841
임	-14842
죄	-14843
증	-14844
교	-14845
메	-14846
루	-14847
백	-14848
준	-14849
D	-14850
확	-14851
산	-14852
벌	-14853
근	-14854
악	-14855
베	-14856
외	-14857
긴	-14858
온	-14859
4	-14860
력	-14861
포	-14862
역	-14863
형	-14864
목	-14865
법	-14866
열	-14867
추	-14868
_	-14869
M	-14870
설	-14871
환	-14872
티	-14873
브	-14874
E	-14875
쪽	-14876
편	-14877
렸	-14878
5	-14879
놈	-14880
코	-14881
잡	-14882
능	-14883
짓	-14884
L	-14885
겁	-14886
몰	-14887
짜	-14888
O	-14889
케	-14890
봤	-14891
엔	-14892
본	-14893
막	-14894
순	-14895
움	-14896
태	-14897
학	-14898
끝	-14899
출	-14900
둘	-14901
R	-14902
볼	-14903
;	-14904
청	-14905
났	-14906
떤	-14907
충	-14908
울	-14909
최	-14910
B	-14911
닥	-14912
항	-14913
떠	-14914
병	-14915
W	-14916
졌	-14917
뿐	-14918
토	-14919
침	-14920
족	-14921
론	-14922
씀	-14923
변	-14924
강	-14925
현	-14926
응	-14927
쳐	-14928
겨	-14929
박	-14930
뭔	-14931
갔	-14932
락	-14933
점	-14934
창	-14935
F	-14936
밤	-14937
격	-14938
령	-14939
험	-14940
완	-14941
x	-14942
참	-14943
깐	-14944
녕	-14945
몇	-14946
별	-14947
판	-14948
켜	-14949
업	-14950
널	-14951
표	-14952
뭘	-14953
황	-14954
송	-14955
혜	-14956
초	-14957
료	-14958
퍼	-14959
/	-14960
빨	-14961
억	-14962
쓰	-14963
십	-14964
귀	-14965
담	-14966
답	-14967
택	-14968
G	-14969
%	-14970
6	-14971
럴	-14972
꺼	-14973
랬	-14974
눈	-14975
끼	-14976
싸	-14977
셔	-14978
돈	-14979
석	-14980
힘	-14981
싫	-14982
숨	-14983
허	-14984
권	-14985
존	-14986
평	-14987
Y	-14988
뒤	-14989
젠	-14990
글	-14991
슬	-14992
책	-14993
앞	-14994
써	-14995
색	-14996
굴	-14997
밀	-14998
커	-14999
총	-15000
U	-15001
찰	-15002
혀	-15003
견	-15004
클	-15005
투	-15006
옥	-15007
9	-15008
놓	-15009
밖	-15010
접	-15011
류	-15012
범	-15013
8	-15014
먼	-15015
냈	-15016
독	-15017
7	-15018
즈	-15019
놀	-15020
축	-15021
왕	-15022
큰	-15023
닌	-15024
검	-15025
갖	-15026
급	-15027
줬	-15028
림	-15029
K	-15030
쟁	-15031
착	-15032
떨	-15033
맙	-15034
꾸	-15035
탄	-15036
민	-15037
월	-15038
블	-15039
승	-15040
깨	-15041
향	-15042
등	-15043
뜻	-15044
풀	-15045
패	-15046
폭	-15047
페	-15048
]	-15049
엘	-15050
취	-15051
걱	-15052
[	-15053
활	-15054
째	-15055
쉬	-15056
갑	-15057
광	-15058
혹	-15059
플	-15060
틀	-15061
암	-15062
찍	-15063
듣	-15064
랐	-15065
쳤	-15066
잔	-15067
헤	-15068
넘	-15069
엇	-15070
채	-15071
j	-15072
럽	-15073
똑	-15074
팔	-15075
곤	-15076
웠	-15077
텐	-15078
웃	-15079
혈	-15080
찬	-15081
맥	-15082
겼	-15083
멋	-15084
탁	-15085
딸	-15086
앉	-15087
곧	-15088
빌	-15089
련	-15090
칠	-15091
례	-15092
립	-15093
욕	-15094
잃	-15095
벽	-15096
맹	-15097
특	-15098
앙	-15099
괴	-15100
낼	-15101
염	-15102
쁜	-15103
숙	-15104
품	-15105
V	-15106
얻	-15107
놔	-15108
몸	-15109
끔	-15110
랜	-15111
렉	-15112
골	-15113
z	-15114
걔	-15115
q	-15116
릭	-15117
삼	-15118
멍	-15119
획	-15120
@	-15121
붙	-15122
넣	-15123
턴	-15124
탈	-15125
멀	-15126
듯	-15127
잊	-15128
팀	-15129
척	-15130
멈	-15131
읽	-15132
쩌	-15133
벗	-15134
맛	-15135
션	-15136
압	-15137
멸	-15138
빈	-15139
뜨	-15140
삶	-15141
J	-15142
꿈	-15143
꼭	-15144
낸	-15145
땅	-15146
쁘	-15147
옷	-15148
렌	-15149
~	-15150
맡	-15151
익	-15152
빼	-15153
협	-15154
=	-15155
첫	-15156
캐	-15157
웨	-15158
푸	-15159
즐	-15160
큼	-15161
짐	-15162
꼬	-15163
칼	-15164
높	-15165
뛰	-15166
렀	-15167
늦	-15168
롭	-15169
됩	-15170
풍	-15171
농	-15172
훈	-15173
빛	-15174
뉴	-15175
숭	-15176
폐	-15177
궁	-15178
훌	-15179
휴	-15180
끌	-15181
쓸	-15182
맨	-15183
륭	-15184
튼	-15185
묻	-15186
육	-15187
춰	-15188
겐	-15189
둬	-15190
콜	-15191
솔	-15192
츠	-15193
액	-15194
봉	-15195
딱	-15196
낮	-15197
쇼	-15198
득	-15199
녁	-15200
극	-15201
램	-15202
딨	-15203
폴	-15204
끄	-15205
량	-15206
샤	-15207
섹	-15208
랄	-15209
철	-15210
킬	-15211
므	-15212
옵	-15213
낭	-15214
북	-15215
렴	-15216
섬	-15217
쿠	-15218
밝	-15219
규	-15220
*	-15221
슈	-15222
뇌	-15223
닙	-15224
X	-15225
랍	-15226
논	-15227
홀	-15228
\	-15229
좌	-15230
맘	-15231
덕	-15232
닐	-15233
쫓	-15234
링	-15235
흔	-15236
옳	-15237
쯤	-15238
짝	-15239
몬	-15240
센	-15241
템	-15242
삭	-15243
엉	-15244
Q	-15245
앨	-15246
훔	-15247
벨	-15248
쉽	-15249
쎄	-15250
옆	-15251
층	-15252
닫	-15253
켰	-15254
밌	-15255
냄	-15256
효	-15257
흐	-15258
징	-15259
꽤	-15260
흥	-15261
곡	-15262
킨	-15263
찌	-15264
끊	-15265
촌	-15266
앤	-15267
퇴	-15268
닉	-15269
쟤	-15270
덩	-15271
벤	-15272
뻐	-15273
텔	-15274
롤	-15275
껴	-15276
땐	-15277
씬	-15278
측	-15279
납	-15280
놨	-15281
칙	-15282
흘	-15283
값	-15284
밥	-15285
밑	-15286
쨌	-15287
쇠	-15288
슴	-15289
씩	-15290
렵	-15291
틴	-15292
폰	-15293
딘	-15294
셋	-15295
콘	-15296
넷	-15297
헌	-15298
롱	-15299
랭	-15300
둥	-15301
잭	-15302
객	-15303
탐	-15304
옛	-15305
윈	-15306
혔	-15307
킹	-15308
털	-15309
졸	-15310
윌	-15311
쌍	-15312
웅	-15313
깊	-15314
뻔	-15315
흑	-15316
샘	-15317
헬	-15318
딜	-15319
#	-15320
섯	-15321
쥐	-15322
캠	-15323
낙	-15324
춤	-15325
웬	-15326
릿	-15327
곱	-15328
훨	-15329
낫	-15330
넨	-15331
떡	-15332
앗	-15333
흉	-15334
힌	-15335
즘	-15336
옮	-15337
떼	-15338
델	-15339
몽	-15340
왼	-15341
랙	-15342
꼴	-15343
픈	-15344
낌	-15345
젯	-15346
딩	-15347
싱	-15348
꾼	-15349
헛	-15350
녹	-15351
럭	-15352
컨	-15353
쇄	-15354
념	-15355
돕	-15356
젊	-15357
율	-15358
휘	-15359
됨	-15360
챙	-15361
힐	-15362
탕	-15363
덤	-15364
쩔	-15365
썼	-15366
똥	-15367
덮	-15368
셰	-15369
텍	-15370
톤	-15371
팅	-15372
븐	-15373
깜	-15374
팬	-15375
딴	-15376
뢰	-15377
멜	-15378
굉	-15379
뒀	-15380
꽃	-15381
쏘	-15382
즉	-15383
넬	-15384
컴	-15385
흡	-15386
섭	-15387
뼈	-15388
펴	-15389
쉐	-15390
늙	-15391
홍	-15392
걷	-15393
젤	-15394
줌	-15395
핀	-15396
톱	-15397
랫	-15398
꿔	-15399
튜	-15400
핑	-15401
김	-15402
겪	-15403
콩	-15404
퓨	-15405
둔	-15406
곁	-15407
셀	-15408
깔	-15409
녜	-15410
셜	-15411
쓴	-15412
덜	-15413
흠	-15414
멘	-15415
촉	-15416
푼	-15417
잤	-15418
흰	-15419
낳	-15420
켓	-15421
밴	-15422
꿀	-15423
욱	-15424
칸	-15425
캘	-15426
룹	-15427
잉	-15428
뚱	-15429
묶	-15430
둠	-15431
엿	-15432
헨	-15433
엽	-15434
끗	-15435
슷	-15436
펜	-15437
쏴	-15438
첼	-15439
뀌	-15440
셉	-15441
Z	-15442
둑	-15443
뽑	-15444
숲	-15445
댄	-15446
엎	-15447
샌	-15448
략	-15449
륙	-15450
봅	-15451
홈	-15452
숫	-15453
킴	-15454
픔	-15455
흙	-15456
춘	-15457
엠	-15458
균	-15459
꽉	-15460
롯	-15461
갇	-15462
뒷	-15463
빵	-15464
칭	-15465
톰	-15466
묘	-15467
빅	-15468
뿌	-15469
핸	-15470
캔	-15471
댔	-15472
$	-15473
녔	-15474
윗	-15475
률	-15476
붕	-15477
릅	-15478
컬	-15479
끈	-15480
빚	-15481
됬	-15482
냉	-15483
핵	-15484
롬	-15485
탓	-15486
렬	-15487
쁨	-15488
댁	-15489
벼	-15490
젖	-15491
겸	-15492
펠	-15493
틱	-15494
좆	-15495
땠	-15496
뷰	-15497
빗	-15498
덴	-15499
눌	-15500
뺏	-15501
렁	-15502
몫	-15503
젝	-15504
튀	-15505
촬	-15506
셈	-15507
줍	-15508
삽	-15509
묵	-15510
걘	-15511
뚫	-15512
낄	-15513
릇	-15514
릎	-15515
룩	-15516
넓	-15517
밟	-15518
컷	-15519
껏	-15520
혐	-15521
굳	-15522
깝	-15523
밍	-15524
캡	-15525
엑	-15526
콤	-15527
빙	-15528
웹	-15529
쩡	-15530
얀	-15531
닝	-15532
♬	-15533
췄	-15534
}	-15535
퀴	-15536
닮	-15537
탑	-15538
{	-15539
멕	-15540
찢	-15541
꼈	-15542
늑	-15543
큐	-15544
쉴	-15545
씻	-15546
꿨	-15547
렛	-15548
틸	-15549
+	-15550
룸	-15551
썩	-15552
짧	-15553
펼	-15554
갚	-15555
첨	-15556
쾌	-15557
뱀	-15558
듀	-15559
깃	-15560
뤄	-15561
짱	-15562
깄	-15563
꼼	-15564
맺	-15565
빡	-15566
냅	-15567
콧	-15568
퀸	-15569
굶	-15570
잇	-15571
빤	-15572
캣	-15573
탠	-15574
룰	-15575
닭	-15576
톨	-15577
샀	-15578
싼	-15579
혁	-15580
및	-15581
탱	-15582
탭	-15583
렐	-15584
쪼	-15585
햄	-15586
웰	-15587
봇	-15588
쐈	-15589
닦	-15590
찔	-15591
켈	-15592
굽	-15593
픽	-15594
룻	-15595
쌓	-15596
켄	-15597
곰	-15598
눠	-15599
띄	-15600
뵙	-15601
탔	-15602
칩	-15603
뚜	-15604
왓	-15605
섞	-15606
뮤	-15607
쏜	-15608
옹	-15609
ᄏ	-15610
잎	-15611
듭	-15612
컵	-15613
콥	-15614
꿇	-15615
딕	-15616
홉	-15617
듬	-15618
턱	-15619
뭉	-15620
셸	-15621
닿	-15622
밋	-15623
쏠	-15624
긋	-15625
컸	-15626
깁	-15627
첩	-15628
껄	-15629
끓	-15630
낀	-15631
벅	-15632
쏟	-15633
캇	-15634
헐	-15635
겟	-15636
뱅	-15637
섰	-15638
갤	-15639
갱	-15640
깥	-15641
낚	-15642
딪	-15643
싹	-15644
씌	-15645
왠	-15646
폼	-15647
겹	-15648
낯	-15649
뜯	-15650
삐	-15651
랩	-15652
좁	-15653
팝	-15654
읍	-15655
룡	-15656
ö	-15657
껍	-15658
쌀	-15659
뭣	-15660
팡	-15661
갓	-15662
벙	-15663
찼	-15664
햇	-15665
궤	-15666
뜩	-15667
쭉	-15668
꽂	-15669
틈	-15670
땡	-15671
긍	-15672
풋	-15673
윤	-15674
쿨	-15675
룬	-15676
쩍	-15677
맷	-15678
붉	-15679
왈	-15680
엌	-15681
융	-15682
흩	-15683
뭇	-15684
펭	-15685
쥬	-15686
킷	-15687
렘	-15688
뎌	-15689
샐	-15690
쉘	-15691
씹	-15692
얌	-15693
쉿	-15694
짤	-15695
챔	-15696
땜	-15697
>	-15698
듈	-15699
뱃	-15700
솜	-15701
팩	-15702
멤	-15703
뽀	-15704
밧	-15705
밭	-15706
땀	-15707
뿔	-15708
텨	-15709
돔	-15710
앰	-15711
밈	-15712
얜	-15713
뭡	-15714
쩐	-15715
쵸	-15716
굿	-15717
푹	-15718
핫	-15719
댓	-15720
쁠	-15721
첸	-15722
팽	-15723
눕	-15724
솟	-15725
넥	-15726
믄	-15727
쫄	-15728
춥	-15729
뵈	-15730
욘	-15731
긁	-15732
쑤	-15733
팠	-15734
꿰	-15735
럿	-15736
얭	-15737
뜰	-15738
윽	-15739
펀	-15740
귄	-15741
쨋	-15742
봄	-15743
뻗	-15744
샬	-15745
댈	-15746
둡	-15747
륨	-15748
뮬	-15749
돋	-15750
랴	-15751
킵	-15752
휠	-15753
쫒	-15754
숍	-15755
즌	-15756
짖	-15757
챈	-15758
핏	-15759
덟	-15760
팍	-15761
붓	-15762
쟨	-15763
팁	-15764
짚	-15765
칫	-15766
횡	-15767
믹	-15768
툴	-15769
깡	-15770
빴	-15771
뚝	-15772
샴	-15773
멧	-15774
볍	-15775
꽁	-15776
넛	-15777
윙	-15778
몹	-15779
챘	-15780
<	-15781
벳	-15782
샅	-15783
퀼	-15784
꺾	-15785
곽	-15786
뱉	-15787
펫	-15788
댕	-15789
덧	-15790
띠	-15791
짊	-15792
쫌	-15793
쿵	-15794
뀔	-15795
샷	-15796
쩜	-15797
썅	-15798
엣	-15799
짠	-15800
꼽	-15801
덱	-15802
륵	-15803
엮	-15804
숴	-15805
펄	-15806
펑	-15807
겔	-15808
깼	-15809
닷	-15810
톡	-15811
쭤	-15812
껀	-15813
퉁	-15814
캄	-15815
겉	-15816
쑥	-15817
릉	-15818
벡	-15819
팟	-15820
힙	-15821
깎	-15822
뀐	-15823
끽	-15824
걀	-15825
숀	-15826
옴	-15827
슐	-15828
콕	-15829
걜	-15830
뎁	-15831
웁	-15832
덥	-15833
헷	-15834
뜬	-15835
펌	-15836
낡	-15837
앵	-15838
핍	-15839
뻤	-15840
눴	-15841
썽	-15842
겄	-15843
깍	-15844
밸	-15845
뽕	-15846
쳇	-15847
떴	-15848
빔	-15849
앓	-15850
쟈	-15851
몄	-15852
싣	-15853
쌤	-15854
썰	-15855
젬	-15856
텅	-15857
퍽	-15858
ᄒ	-15859
덫	-15860
쥴	-15861
헥	-15862
&	-15863
^	-15864
닛	-15865
썬	-15866
촛	-15867
꿍	-15868
쿼	-15869
췌	-15870
흴	-15871
빕	-15872
껌	-15873
썹	-15874
괄	-15875
폈	-15876
녈	-15877
랗	-15878
쌌	-15879
렷	-15880
샹	-15881
툼	-15882
팜	-15883
륜	-15884
맑	-15885
잣	-15886
퀘	-15887
뉘	-15888
똘	-15889
맵	-15890
“	-15891
꽝	-15892
쿄	-15893
늬	-15894
맴	-15895
뻥	-15896
츄	-15897
팻	-15898
휩	-15899
렙	-15900
씁	-15901
찐	-15902
궈	-15903
뤘	-15904
힉	-15905
벵	-15906
궂	-15907
늄	-15908
떄	-15909
짭	-15910
役	-15911
얽	-15912
훼	-15913
얗	-15914
텀	-15915
헝	-15916
ᅲ	-15917
뒈	-15918
뛸	-15919
얕	-15920
찜	-15921
윅	-15922
짙	-15923
칵	-15924
쭈	-15925
깬	-15926
넵	-15927
얄	-15928
얹	-15929
낱	-15930
슘	-15931
엾	-15932
잽	-15933
ᄋ	-15934
댐	-15935
뷸	-15936
쁩	-15937
옐	-15938
잌	-15939
`	-15940
꾀	-15941
넉	-15942
렝	-15943
텝	-15944
튬	-15945
깰	-15946
뵐	-15947
붐	-15948
젼	-15949
ا	-15950
깅	-15951
앱	-15952
껑	-15953
땄	-15954
잼	-15955
훤	-15956
돛	-15957
뜸	-15958
랠	-15959
뺐	-15960
뿜	-15961
섀	-15962
‘	-15963
꺄	-15964
꽥	-15965
뎀	-15966
뎅	-15967
쉰	-15968
’	-15969
”	-15970
쐬	-15971
얇	-15972
캉	-15973
콰	-15974
탬	-15975
궐	-15976
뭄	-15977
뺨	-15978
쏙	-15979
젓	-15980
팸	-15981
갯	-15982
딛	-15983
챌	-15984
훅	-15985
い	-15986
걍	-15987
봬	-15988
뾰	-15989
왁	-15990
쿡	-15991
툭	-15992
튕	-15993
햐	-15994
굼	-15995
